{
  "version": "1.0",
  "truncation": {
    "direction": "Right",
    "max_length": 64,
    "strategy": "LongestFirst",
    "stride": 0
  },
  "padding": {
    "strategy": {
      "Fixed": 64
    },
    "direction": "Right",
    "pad_to_multiple_of": null,
    "pad_id": 0,
    "pad_type_id": 0,
    "pad_token": "[PAD]"
  },
  "added_tokens": [
    {
      "id": 0,
      "content": "[PAD]",
      "single_word": false,
      "lstrip": false,
      "rstrip": false,
      "normalized": false,
      "special": true
    },
    {
      "id": 1,
      "content": "[UNK]",
      "single_word": false,
      "lstrip": false,
      "rstrip": false,
      "normalized": false,
      "special": true
    },
    {
      "id": 2,
      "content": "[CLS]",
      "single_word": false,
      "lstrip": false,
      "rstrip": false,
      "normalized": false,
      "special": true
    }
  ],
  "normalizer": null,
  "pre_tokenizer": {
    "type": "Whitespace"
  },
  "post_processor": {
    "type": "TemplateProcessing",
    "single": [
      {
        "SpecialToken": {
          "id": "[CLS]",
          "type_id": 0
        }
      },
      {
        "Sequence": {
          "id": "A",
          "type_id": 0
        }
      }
    ],
    "pair": [
      {
        "Sequence": {
          "id": "A",
          "type_id": 0
        }
      },
      {
        "Sequence": {
          "id": "B",
          "type_id": 1
        }
      }
    ],
    "special_tokens": {
      "[CLS]": {
        "id": "[CLS]",
        "ids": [
          2
        ],
        "tokens": [
          "[CLS]"
        ]
      }
    }
  },
  "decoder": null,
  "model": {
    "type": "BPE",
    "dropout": null,
    "unk_token": "[UNK]",
    "continuing_subword_prefix": null,
    "end_of_word_suffix": null,
    "fuse_unk": false,
    "byte_fallback": false,
    "ignore_merges": false,
    "vocab": {
      "[PAD]": 0,
      "[UNK]": 1,
      "[CLS]": 2,
      "!": 3,
      "#": 4,
      "$": 5,
      "%": 6,
      "&": 7,
      "'": 8,
      "(": 9,
      ")": 10,
      "*": 11,
      "+": 12,
      ",": 13,
      "-": 14,
      ".": 15,
      "/": 16,
      "0": 17,
      "1": 18,
      "2": 19,
      "3": 20,
      "4": 21,
      "5": 22,
      "6": 23,
      "7": 24,
      "8": 25,
      "9": 26,
      ":": 27,
      ";": 28,
      "<": 29,
      "=": 30,
      ">": 31,
      "?": 32,
      "@": 33,
      "I": 34,
      "[": 35,
      "\\": 36,
      "]": 37,
      "^": 38,
      "_": 39,
      "`": 40,
      "a": 41,
      "b": 42,
      "c": 43,
      "d": 44,
      "e": 45,
      "f": 46,
      "g": 47,
      "h": 48,
      "i": 49,
      "j": 50,
      "k": 51,
      "l": 52,
      "m": 53,
      "n": 54,
      "o": 55,
      "p": 56,
      "q": 57,
      "r": 58,
      "s": 59,
      "t": 60,
      "u": 61,
      "v": 62,
      "w": 63,
      "x": 64,
      "y": 65,
      "z": 66,
      "{": 67,
      "|": 68,
      "}": 69,
      "~": 70,
      "¡": 71,
      "£": 72,
      "§": 73,
      "¨": 74,
      "©": 75,
      "¬": 76,
      "¯": 77,
      "´": 78,
      "¸": 79,
      "¿": 80,
      "ß": 81,
      "á": 82,
      "ä": 83,
      "å": 84,
      "ç": 85,
      "é": 86,
      "ñ": 87,
      "ó": 88,
      "ö": 89,
      "ø": 90,
      "ù": 91,
      "ú": 92,
      "ü": 93,
      "ą": 94,
      "ı": 95,
      "š": 96,
      "̇": 97,
      "ν": 98,
      "ο": 99,
      "ก": 100,
      "จ": 101,
      "น": 102,
      "ผ": 103,
      "ย": 104,
      "า": 105,
      "ำ": 106,
      "ื": 107,
      "เ": 108,
      "ใ": 109,
      "ไ": 110,
      "ည": 111,
      "တ": 112,
      "မ": 113,
      "သ": 114,
      "ိ": 115,
      "ေ": 116,
      "၊": 117,
      "√": 118,
      "≤": 119,
      "。": 120,
      "ツ": 121,
      "": 122,
      "": 123,
      "": 124,
      "": 125,
      "": 126,
      "": 127,
      "": 128,
      "": 129,
      "": 130,
      "": 131,
      "": 132,
      "": 133,
      "": 134,
      "": 135,
      "": 136,
      "": 137,
      "": 138,
      "": 139,
      "": 140,
      "": 141,
      "": 142,
      "": 143,
      "": 144,
      "": 145,
      "": 146,
      "": 147,
      "": 148,
      "": 149,
      "": 150,
      "": 151,
      "": 152,
      "": 153,
      "": 154,
      "": 155,
      "": 156,
      "": 157,
      "０": 158,
      "１": 159,
      "２": 160,
      "３": 161,
      "：": 162,
      "？": 163,
      "＿": 164,
      "ａ": 165,
      "ｃ": 166,
      "ｄ": 167,
      "ｅ": 168,
      "ｆ": 169,
      "ｇ": 170,
      "ｈ": 171,
      "ｉ": 172,
      "ｋ": 173,
      "ｌ": 174,
      "ｍ": 175,
      "ｎ": 176,
      "ｏ": 177,
      "ｒ": 178,
      "ｓ": 179,
      "ｕ": 180,
      "ｘ": 181,
      "ｙ": 182,
      "～": 183,
      "�": 184,
      "se": 185,
      "pa": 186,
      "sepa": 187,
      "ha": 188,
      "gg": 189,
      "he": 190,
      "no": 191,
      "re": 192,
      "in": 193,
      "an": 194,
      "lo": 195,
      "be": 196,
      "me": 197,
      "or": 198,
      "it": 199,
      "ou": 200,
      "ck": 201,
      "haha": 202,
      "st": 203,
      "ll": 204,
      "er": 205,
      "ea": 206,
      "oo": 207,
      "you": 208,
      "do": 209,
      "lol": 210,
      "ar": 211,
      "fu": 212,
      "pl": 213,
      "ez": 214,
      "on": 215,
      "th": 216,
      "the": 217,
      "not": 218,
      "wp": 219,
      "en": 220,
      "ro": 221,
      "is": 222,
      "id": 223,
      "ay": 224,
      "to": 225,
      "fuck": 226,
      "al": 227,
      "ort": 228,
      "ge": 229,
      "ve": 230,
      "hat": 231,
      "port": 232,
      "ga": 233,
      "ee": 234,
      "sh": 235,
      "co": 236,
      "le": 237,
      "we": 238,
      "report": 239,
      "at": 240,
      "so": 241,
      "ba": 242,
      "game": 243,
      "ill": 244,
      "ic": 245,
      "and": 246,
      "ob": 247,
      "go": 248,
      "ke": 249,
      "this": 250,
      "ra": 251,
      "ry": 252,
      "noob": 253,
      "all": 254,
      "for": 255,
      "li": 256,
      "ju": 257,
      "su": 258,
      "la": 259,
      "ch": 260,
      "ma": 261,
      "..": 262,
      "mid": 263,
      "ing": 264,
      "end": 265,
      "ho": 266,
      "that": 267,
      "eam": 268,
      "can": 269,
      "my": 270,
      "ok": 271,
      "ss": 272,
      "ty": 273,
      "team": 274,
      "de": 275,
      "wa": 276,
      "dd": 277,
      "ta": 278,
      "ggwp": 279,
      "have": 280,
      "un": 281,
      "ri": 282,
      "ut": 283,
      "get": 284,
      "mo": 285,
      "ice": 286,
      "of": 287,
      "ti": 288,
      "com": 289,
      "uy": 290,
      "ur": 291,
      "hahaha": 292,
      "nd": 293,
      "pls": 294,
      "shit": 295,
      "nice": 296,
      "sa": 297,
      "just": 298,
      "win": 299,
      "fa": 300,
      "ood": 301,
      "di": 302,
      "use": 303,
      "play": 304,
      "ver": 305,
      "ot": 306,
      "ard": 307,
      "now": 308,
      "zz": 309,
      "ly": 310,
      "what": 311,
      "wh": 312,
      "min": 313,
      "wait": 314,
      "pu": 315,
      "mend": 316,
      "ne": 317,
      "aa": 318,
      "gh": 319,
      "mm": 320,
      "xd": 321,
      "eed": 322,
      "pe": 323,
      "pi": 324,
      "good": 325,
      "ye": 326,
      "sf": 327,
      "kill": 328,
      "like": 329,
      "commend": 330,
      "guy": 331,
      "ld": 332,
      "come": 333,
      "lose": 334,
      "why": 335,
      "tf": 336,
      "ru": 337,
      "your": 338,
      "du": 339,
      "op": 340,
      "ir": 341,
      "da": 342,
      "na": 343,
      "wtf": 344,
      "one": 345,
      "wit": 346,
      "pro": 347,
      "back": 348,
      "yea": 349,
      "oooo": 350,
      "car": 351,
      "up": 352,
      "ce": 353,
      "us": 354,
      "how": 355,
      "ink": 356,
      "with": 357,
      ":)": 358,
      "il": 359,
      "ow": 360,
      "per": 361,
      "will": 362,
      "as": 363,
      "its": 364,
      "ja": 365,
      "plea": 366,
      "wr": 367,
      "carry": 368,
      "please": 369,
      "man": 370,
      "ret": 371,
      "bo": 372,
      "say": 373,
      "han": 374,
      "wan": 375,
      "ally": 376,
      "time": 377,
      "ff": 378,
      "sl": 379,
      "ct": 380,
      "fl": 381,
      "bad": 382,
      "rd": 383,
      "pick": 384,
      "em": 385,
      "but": 386,
      "more": 387,
      "ca": 388,
      "gi": 389,
      "too": 390,
      "well": 391,
      "po": 392,
      "mmr": 393,
      "whe": 394,
      "nt": 395,
      "ght": 396,
      "feed": 397,
      "tra": 398,
      "eeee": 399,
      "ni": 400,
      "ul": 401,
      "fk": 402,
      "see": 403,
      "ka": 404,
      "ree": 405,
      "they": 406,
      "cou": 407,
      "gl": 408,
      "inv": 409,
      "know": 410,
      "te": 411,
      "idi": 412,
      "if": 413,
      "om": 414,
      "oom": 415,
      "che": 416,
      "hh": 417,
      "fucking": 418,
      "die": 419,
      "plz": 420,
      "dddd": 421,
      "than": 422,
      "idiot": 423,
      "pause": 424,
      "lea": 425,
      "hard": 426,
      "out": 427,
      "hahahaha": 428,
      "rofl": 429,
      "sup": 430,
      "far": 431,
      "way": 432,
      "ate": 433,
      "yeah": 434,
      "ven": 435,
      "dge": 436,
      "sad": 437,
      "tal": 438,
      "ane": 439,
      "wor": 440,
      "wow": 441,
      "rea": 442,
      "want": 443,
      "kk": 444,
      "ab": 445,
      "pudge": 446,
      "ever": 447,
      "fe": 448,
      "sy": 449,
      "farm": 450,
      "ue": 451,
      "who": 452,
      "talk": 453,
      "jo": 454,
      "ish": 455,
      "bla": 456,
      "doom": 457,
      "es": 458,
      "retard": 459,
      "10": 460,
      "fin": 461,
      "ng": 462,
      "let": 463,
      "...": 464,
      "oker": 465,
      "dota": 466,
      ":(": 467,
      "mu": 468,
      "row": 469,
      "try": 470,
      "bit": 471,
      "hi": 472,
      "need": 473,
      "ark": 474,
      "think": 475,
      "afk": 476,
      "ya": 477,
      "easy": 478,
      "def": 479,
      "trash": 480,
      "qop": 481,
      "any": 482,
      "really": 483,
      "ax": 484,
      "vi": 485,
      "mao": 486,
      "buy": 487,
      "con": 488,
      "lu": 489,
      "still": 490,
      "suck": 491,
      "thank": 492,
      "mi": 493,
      "hah": 494,
      "lane": 495,
      "lmao": 496,
      "ould": 497,
      "alche": 498,
      "ther": 499,
      "ki": 500,
      "yes": 501,
      "oh": 502,
      "some": 503,
      "jaja": 504,
      "bi": 505,
      "cu": 506,
      "thing": 507,
      "ter": 508,
      "bot": 509,
      "dea": 510,
      "w8": 511,
      "ah": 512,
      "dy": 513,
      "sor": 514,
      "hahah": 515,
      "aw": 516,
      "slark": 517,
      "vo": 518,
      "gggg": 519,
      "give": 520,
      "fun": 521,
      "by": 522,
      "lin": 523,
      "ber": 524,
      "when": 525,
      "invoker": 526,
      "omg": 527,
      "sorry": 528,
      "pp": 529,
      "top": 530,
      "ute": 531,
      "luck": 532,
      "ward": 533,
      "our": 534,
      "stop": 535,
      "support": 536,
      "bro": 537,
      "qu": 538,
      "only": 539,
      "00": 540,
      "fi": 541,
      "hel": 542,
      "bitch": 543,
      "aga": 544,
      "spe": 545,
      "then": 546,
      "run": 547,
      "fro": 548,
      "ww": 549,
      "blame": 550,
      "ran": 551,
      "ong": 552,
      "zzzz": 553,
      "dude": 554,
      "cer": 555,
      "hf": 556,
      "fast": 557,
      "sure": 558,
      "vs": 559,
      "yy": 560,
      "hero": 561,
      "ssi": 562,
      "aaaa": 563,
      "bb": 564,
      "even": 565,
      "oooooooo": 566,
      "usk": 567,
      "boy": 568,
      "fo": 569,
      "his": 570,
      "wk": 571,
      "alch": 572,
      "im": 573,
      "wn": 574,
      "again": 575,
      "sec": 576,
      "from": 577,
      "bu": 578,
      "sha": 579,
      "there": 580,
      "less": 581,
      "player": 582,
      "dead": 583,
      "much": 584,
      "rek": 585,
      "stup": 586,
      "stupid": 587,
      "sk": 588,
      "lag": 589,
      "unt": 590,
      "off": 591,
      "where": 592,
      "leave": 593,
      "finish": 594,
      "si": 595,
      "sil": 596,
      "real": 597,
      "art": 598,
      "mad": 599,
      "take": 600,
      "right": 601,
      "tin": 602,
      "love": 603,
      "jugg": 604,
      "bl": 605,
      "day": 606,
      "wat": 607,
      "riki": 608,
      "fail": 609,
      "low": 610,
      "count": 611,
      "every": 612,
      "rekt": 613,
      "fir": 614,
      "here": 615,
      "int": 616,
      "ways": 617,
      "bye": 618,
      "gay": 619,
      "ear": 620,
      "silen": 621,
      "ble": 622,
      "cm": 623,
      "sni": 624,
      "happ": 625,
      "cunt": 626,
      "kid": 627,
      "long": 628,
      "life": 629,
      "ember": 630,
      "et": 631,
      "fri": 632,
      "free": 633,
      "she": 634,
      "ook": 635,
      "always": 636,
      "lel": 637,
      "eeeeeeee": 638,
      "gre": 639,
      "uu": 640,
      "first": 641,
      "ac": 642,
      "ad": 643,
      "lc": 644,
      "mis": 645,
      "don": 646,
      "thx": 647,
      "ult": 648,
      "ulti": 649,
      "wew": 650,
      "peru": 651,
      "am": 652,
      "el": 653,
      "last": 654,
      "dddddddd": 655,
      "help": 656,
      "ii": 657,
      "look": 658,
      "tiny": 659,
      "cry": 660,
      "ny": 661,
      "would": 662,
      "item": 663,
      "down": 664,
      "eep": 665,
      "lion": 666,
      "cause": 667,
      "void": 668,
      "friend": 669,
      "tell": 670,
      "lucky": 671,
      "20": 672,
      "bra": 673,
      "hit": 674,
      "worth": 675,
      "4k": 676,
      "ex": 677,
      "lina": 678,
      "bh": 679,
      "dc": 680,
      "ig": 681,
      "lf": 682,
      "mb": 683,
      "rat": 684,
      "yo": 685,
      "ank": 686,
      "stfu": 687,
      "god": 688,
      "mag": 689,
      "slard": 690,
      "sniper": 691,
      "^^": 692,
      "act": 693,
      "ion": 694,
      "mor": 695,
      "ide": 696,
      "hate": 697,
      "care": 698,
      "hook": 699,
      "pre": 700,
      "ready": 701,
      "axe": 702,
      "slardar": 703,
      "mate": 704,
      "spa": 705,
      "mean": 706,
      "gege": 707,
      "....": 708,
      "silencer": 709,
      "ass": 710,
      "xt": 711,
      "ze": 712,
      "stor": 713,
      "sry": 714,
      "tw": 715,
      "hey": 716,
      "ste": 717,
      "ple": 718,
      "tho": 719,
      "make": 720,
      "dick": 721,
      "cree": 722,
      "mir": 723,
      "sp": 724,
      "skill": 725,
      "hehe": 726,
      "lock": 727,
      "ent": 728,
      "mother": 729,
      "hahahah": 730,
      "ine": 731,
      "ana": 732,
      "throw": 733,
      "quit": 734,
      "fight": 735,
      "sta": 736,
      "fucker": 737,
      "next": 738,
      "about": 739,
      "miss": 740,
      "creep": 741,
      "start": 742,
      "nec": 743,
      "never": 744,
      "cum": 745,
      "mirana": 746,
      "kb": 747,
      "push": 748,
      "russi": 749,
      "ahaha": 750,
      "ant": 751,
      "ous": 752,
      "shut": 753,
      "mn": 754,
      "rs": 755,
      "tt": 756,
      "tusk": 757,
      "solo": 758,
      "very": 759,
      "comeback": 760,
      "wanna": 761,
      "fore": 762,
      "br": 763,
      "fck": 764,
      "fee": 765,
      "gue": 766,
      "keep": 767,
      "od": 768,
      "25": 769,
      "af": 770,
      "der": 771,
      "gj": 772,
      "ie": 773,
      "bait": 774,
      ":))": 775,
      "invo": 776,
      "jojo": 777,
      "2k": 778,
      "over": 779,
      "ang": 780,
      "mee": 781,
      "already": 782,
      "should": 783,
      "rip": 784,
      "mom": 785,
      "most": 786,
      "useless": 787,
      "wrong": 788,
      "dis": 789,
      "ugh": 790,
      "rage": 791,
      "could": 792,
      "joke": 793,
      "spec": 794,
      "feel": 795,
      "rr": 796,
      "ser": 797,
      "lie": 798,
      "okay": 799,
      "kkkk": 800,
      "bick": 801,
      "actu": 802,
      "5k": 803,
      "lit": 804,
      "mute": 805,
      "np": 806,
      "sm": 807,
      "son": 808,
      "tle": 809,
      "wer": 810,
      "stun": 811,
      "ich": 812,
      "nah": 813,
      "russian": 814,
      "1k": 815,
      "bs": 816,
      "je": 817,
      "lv": 818,
      "pt": 819,
      "tp": 820,
      "str": 821,
      "llll": 822,
      "gold": 823,
      "unpause": 824,
      "rubick": 825,
      "dumb": 826,
      "work": 827,
      "gggggggg": 828,
      "meepo": 829,
      "ci": 830,
      "cha": 831,
      "mon": 832,
      "rc": 833,
      "wi": 834,
      "noy": 835,
      "stea": 836,
      "ded": 837,
      "hhhh": 838,
      "vian": 839,
      "necro": 840,
      "hp": 841,
      "late": 842,
      "mp": 843,
      "sb": 844,
      "self": 845,
      "ite": 846,
      "oun": 847,
      "dog": 848,
      "minute": 849,
      "damn": 850,
      "picker": 851,
      "blink": 852,
      "11": 853,
      "30": 854,
      "boo": 855,
      "bar": 856,
      "bal": 857,
      "call": 858,
      "fla": 859,
      "ppa": 860,
      "sven": 861,
      "same": 862,
      "ruin": 863,
      "peruvian": 864,
      "storm": 865,
      "15": 866,
      "bkb": 867,
      "close": 868,
      "husk": 869,
      "iz": 870,
      "ner": 871,
      "ance": 872,
      "ool": 873,
      "legi": 874,
      "great": 875,
      "actually": 876,
      "12": 877,
      "cl": 878,
      "dat": 879,
      "gy": 880,
      "ker": 881,
      "nothing": 882,
      "jug": 883,
      "rier": 884,
      "axax": 885,
      "rando": 886,
      "happy": 887,
      "./": 888,
      "=)": 889,
      "mat": 890,
      "put": 891,
      "tro": 892,
      "wo": 893,
      "also": 894,
      "key": 895,
      "offl": 896,
      "nect": 897,
      "dazz": 898,
      "nigg": 899,
      "funny": 900,
      "early": 901,
      "blem": 902,
      "zeus": 903,
      "sc": 904,
      "tru": 905,
      "head": 906,
      "before": 907,
      "fagg": 908,
      "glhf": 909,
      "connect": 910,
      "clock": 911,
      "ick": 912,
      "ster": 913,
      "arded": 914,
      "these": 915,
      "comend": 916,
      "mmmm": 917,
      "problem": 918,
      "defend": 919,
      "line": 920,
      "spect": 921,
      "counter": 922,
      "lvl": 923,
      "./.": 924,
      "gank": 925,
      "rit": 926,
      "nope": 927,
      "ment": 928,
      "ity": 929,
      "jung": 930,
      "safe": 931,
      "faggot": 932,
      "jungle": 933,
      "ahahaha": 934,
      "kin": 935,
      "ople": 936,
      "ping": 937,
      "sir": 938,
      "rela": 939,
      "eak": 940,
      "engl": 941,
      "mage": 942,
      "waste": 943,
      "people": 944,
      "retarded": 945,
      "kappa": 946,
      "courier": 947,
      "ream": 948,
      "cuz": 949,
      "happen": 950,
      "bara": 951,
      "legion": 952,
      "dazzle": 953,
      "ahah": 954,
      "bob": 955,
      "may": 956,
      "nu": 957,
      "pc": 958,
      "rly": 959,
      "v5": 960,
      "because": 961,
      "rosh": 962,
      "base": 963,
      "ssy": 964,
      "tain": 965,
      "fair": 966,
      "new": 967,
      "omni": 968,
      "relax": 969,
      "english": 970,
      "3k": 971,
      "ag": 972,
      "rty": 973,
      "tink": 974,
      "ough": 975,
      "ooo": 976,
      "tower": 977,
      "bash": 978,
      "lad": 979,
      "pussy": 980,
      "irl": 981,
      "name": 982,
      "anyway": 983,
      "viper": 984,
      "mist": 985,
      "intro": 986,
      "huskar": 987,
      "troll": 988,
      "bg": 989,
      "lm": 990,
      "nc": 991,
      "tard": 992,
      "her": 993,
      "hahahahaha": 994,
      "ursa": 995,
      "zzz": 996,
      "puck": 997,
      "dusa": 998,
      "mana": 999,
      "many": 1000,
      "venge": 1001,
      "aban": 1002,
      "something": 1003,
      "yyyy": 1004,
      "against": 1005,
      "random": 1006,
      "13": 1007,
      "blo": 1008,
      "cra": 1009,
      "eno": 1010,
      "fat": 1011,
      "ile": 1012,
      "mber": 1013,
      "osf": 1014,
      "que": 1015,
      "rp": 1016,
      "va": 1017,
      "mer": 1018,
      "arrow": 1019,
      "thr": 1020,
      "rog": 1021,
      "leg": 1022,
      "ssss": 1023,
      "net": 1024,
      "pinoy": 1025,
      "big": 1026,
      "zzzzzzzz": 1027,
      "everyone": 1028,
      "brain": 1029,
      "osfrog": 1030,
      "eu": 1031,
      "hu": 1032,
      "ild": 1033,
      "mg": 1034,
      "pret": 1035,
      "v1": 1036,
      "bet": 1037,
      "enig": 1038,
      "fuckin": 1039,
      "hope": 1040,
      "una": 1041,
      "supp": 1042,
      "reak": 1043,
      "after": 1044,
      "gyro": 1045,
      "tinker": 1046,
      "pretty": 1047,
      "dr": 1048,
      "drow": 1049,
      "eg": 1050,
      "ph": 1051,
      "sal": 1052,
      "ater": 1053,
      "ical": 1054,
      "duel": 1055,
      "alchemist": 1056,
      "guess": 1057,
      "flame": 1058,
      "bobo": 1059,
      "abandon": 1060,
      "enough": 1061,
      "enigma": 1062,
      "50": 1063,
      "ahahahaha": 1064,
      "cli": 1065,
      "girl": 1066,
      "haa": 1067,
      "reas": 1068,
      "ound": 1069,
      "gem": 1070,
      "sho": 1071,
      "core": 1072,
      "radi": 1073,
      "such": 1074,
      "cancer": 1075,
      "tion": 1076,
      "while": 1077,
      "tech": 1078,
      "uuuu": 1079,
      "little": 1080,
      "steal": 1081,
      "lmfa": 1082,
      "reason": 1083,
      "chat": 1084,
      "dic": 1085,
      "nus": 1086,
      "tri": 1087,
      "wd": 1088,
      "almost": 1089,
      "baby": 1090,
      "rape": 1091,
      "ddd": 1092,
      "ofc": 1093,
      "pie": 1094,
      "ask": 1095,
      "hello": 1096,
      "aaaaaaaa": 1097,
      "eeeeeeeeeeeeeeee": 1098,
      "clink": 1099,
      ";)": 1100,
      "aim": 1101,
      "bat": 1102,
      "btw": 1103,
      "cla": 1104,
      "chan": 1105,
      "fre": 1106,
      "ht": 1107,
      "ix": 1108,
      "ko": 1109,
      "mone": 1110,
      "other": 1111,
      "por": 1112,
      "sd": 1113,
      "seri": 1114,
      "ina": 1115,
      "lot": 1116,
      "stay": 1117,
      "chill": 1118,
      "deser": 1119,
      "urn": 1120,
      "wind": 1121,
      "yep": 1122,
      "least": 1123,
      "sky": 1124,
      "moron": 1125,
      "izi": 1126,
      "nigga": 1127,
      "spectre": 1128,
      "maybe": 1129,
      "lmfao": 1130,
      "piece": 1131,
      "14": 1132,
      "away": 1133,
      "bor": 1134,
      "cre": 1135,
      "cus": 1136,
      "dun": 1137,
      "gr": 1138,
      "gu": 1139,
      "io": 1140,
      "rn": 1141,
      "party": 1142,
      "rec": 1143,
      "stand": 1144,
      "ene": 1145,
      "ale": 1146,
      "coz": 1147,
      "cock": 1148,
      "ram": 1149,
      "rapi": 1150,
      "damage": 1151,
      "fine": 1152,
      "watch": 1153,
      "account": 1154,
      "cumback": 1155,
      "brood": 1156,
      "boot": 1157,
      "blood": 1158,
      "money": 1159,
      "17": 1160,
      "cool": 1161,
      "crit": 1162,
      "dream": 1163,
      "dmg": 1164,
      "ik": 1165,
      "lich": 1166,
      "ogre": 1167,
      "pur": 1168,
      "sit": 1169,
      "slow": 1170,
      "tn": 1171,
      "sent": 1172,
      "secon": 1173,
      "into": 1174,
      "online": 1175,
      "idea": 1176,
      "gee": 1177,
      "vel": 1178,
      "kek": 1179,
      "holy": 1180,
      "move": 1181,
      "save": 1182,
      "yet": 1183,
      "dust": 1184,
      "point": 1185,
      "high": 1186,
      "bbbb": 1187,
      "build": 1188,
      "acc": 1189,
      "magnus": 1190,
      "stack": 1191,
      "strong": 1192,
      "clinkz": 1193,
      "serious": 1194,
      "deserve": 1195,
      "second": 1196,
      "1v1": 1197,
      "55": 1198,
      "bly": 1199,
      "boun": 1200,
      "cle": 1201,
      "ds": 1202,
      "hmm": 1203,
      "lan": 1204,
      "luna": 1205,
      "ol": 1206,
      "pr": 1207,
      "tank": 1208,
      "vp": 1209,
      "hell": 1210,
      "heal": 1211,
      "ouse": 1212,
      "alc": 1213,
      "ali": 1214,
      "gogo": 1215,
      "under": 1216,
      "rub": 1217,
      "poor": 1218,
      "rank": 1219,
      "oooooooooooooooo": 1220,
      "focus": 1221,
      "dddddddddddddddd": 1222,
      "iiii": 1223,
      "space": 1224,
      "offlane": 1225,
      "16": 1226,
      "22": 1227,
      "ban": 1228,
      "den": 1229,
      "fb": 1230,
      "ger": 1231,
      "gra": 1232,
      "joker": 1233,
      "sin": 1234,
      "soo": 1235,
      "tr": 1236,
      "yu": 1237,
      "za": 1238,
      "ggg": 1239,
      "reconnect": 1240,
      "lolo": 1241,
      "eat": 1242,
      "doto": 1243,
      "veno": 1244,
      "hole": 1245,
      "til": 1246,
      "year": 1247,
      "own": 1248,
      "assho": 1249,
      "pose": 1250,
      "feeder": 1251,
      "must": 1252,
      "buyer": 1253,
      "qui": 1254,
      "predic": 1255,
      "balance": 1256,
      "match": 1257,
      "true": 1258,
      "throne": 1259,
      "rampa": 1260,
      "asshole": 1261,
      "balanced": 1262,
      "au": 1263,
      "agh": 1264,
      "gree": 1265,
      "later": 1266,
      "tide": 1267,
      "send": 1268,
      "lly": 1269,
      "dow": 1270,
      "idk": 1271,
      "lesh": 1272,
      "obvi": 1273,
      "cho": 1274,
      "mail": 1275,
      "teammate": 1276,
      "shitty": 1277,
      "mind": 1278,
      "learn": 1279,
      "worry": 1280,
      "farming": 1281,
      "100": 1282,
      "anything": 1283,
      "ahha": 1284,
      "shaker": 1285,
      "nyx": 1286,
      "click": 1287,
      "1st": 1288,
      "24": 1289,
      "add": 1290,
      "ahahah": 1291,
      "aeg": 1292,
      "cent": 1293,
      "dk": 1294,
      "fg": 1295,
      "gon": 1296,
      "ming": 1297,
      "mvp": 1298,
      "rt": 1299,
      "scare": 1300,
      "ton": 1301,
      "wea": 1302,
      "paper": 1303,
      "red": 1304,
      "resu": 1305,
      "rent": 1306,
      "loss": 1307,
      "ouch": 1308,
      "cket": 1309,
      "hahaa": 1310,
      "stard": 1311,
      "ful": 1312,
      "pla": 1313,
      "though": 1314,
      "eee": 1315,
      "coin": 1316,
      "level": 1317,
      "rap": 1318,
      "face": 1319,
      "aaa": 1320,
      "cap": 1321,
      "hahahahah": 1322,
      "black": 1323,
      "anyone": 1324,
      "death": 1325,
      "www": 1326,
      "ssive": 1327,
      "jugger": 1328,
      "cmon": 1329,
      "those": 1330,
      "speak": 1331,
      "radiant": 1332,
      "techie": 1333,
      "predict": 1334,
      "rampage": 1335,
      ":/": 1336,
      "ano": 1337,
      "cy": 1338,
      "cat": 1339,
      "ed": 1340,
      "eh": 1341,
      "fv": 1342,
      "hood": 1343,
      "ist": 1344,
      "jk": 1345,
      "rq": 1346,
      "smo": 1347,
      "tu": 1348,
      "vis": 1349,
      "woo": 1350,
      "war": 1351,
      "wis": 1352,
      "ąą": 1353,
      "set": 1354,
      "hay": 1355,
      "hand": 1356,
      "nooo": 1357,
      "restart": 1358,
      "injoker": 1359,
      "belie": 1360,
      "medusa": 1361,
      "ckle": 1362,
      "steam": 1363,
      "today": 1364,
      "wel": 1365,
      "urt": 1366,
      "dire": 1367,
      "body": 1368,
      "league": 1369,
      "word": 1370,
      "yah": 1371,
      "jajajaja": 1372,
      ":)))": 1373,
      "kkkkkkkk": 1374,
      "bounty": 1375,
      "smoke": 1376,
      "believe": 1377,
      "4v5": 1378,
      "ama": 1379,
      "boom": 1380,
      "gin": 1381,
      "ight": 1382,
      "king": 1383,
      "kun": 1384,
      "ppl": 1385,
      "pri": 1386,
      "swa": 1387,
      "tree": 1388,
      "inter": 1389,
      "instea": 1390,
      "lord": 1391,
      "lolz": 1392,
      "fuk": 1393,
      "sus": 1394,
      "suic": 1395,
      "rist": 1396,
      "fault": 1397,
      "naga": 1398,
      "without": 1399,
      "hhh": 1400,
      "whole": 1401,
      "range": 1402,
      "llllllll": 1403,
      "legend": 1404,
      "salty": 1405,
      "enemy": 1406,
      "sentry": 1407,
      "understand": 1408,
      "obvious": 1409,
      "aegis": 1410,
      "instead": 1411,
      "18": 1412,
      "500": 1413,
      "dp": 1414,
      "dou": 1415,
      "foun": 1416,
      "ise": 1417,
      "ks": 1418,
      "lee": 1419,
      "tb": 1420,
      "ten": 1421,
      "ure": 1422,
      "voker": 1423,
      "wal": 1424,
      "wood": 1425,
      "sex": 1426,
      "lone": 1427,
      "meta": 1428,
      "erally": 1429,
      "plan": 1430,
      "ation": 1431,
      "bastard": 1432,
      "pug": 1433,
      "blade": 1434,
      "spell": 1435,
      "wkwk": 1436,
      "shame": 1437,
      "shackle": 1438,
      "ign": 1439,
      "story": 1440,
      "literally": 1441,
      "aghs": 1442,
      "resume": 1443,
      "swap": 1444,
      "suicide": 1445,
      "(:": 1446,
      "200": 1447,
      "6k": 1448,
      "_t": 1449,
      "ao": 1450,
      "bf": 1451,
      "bin": 1452,
      "bru": 1453,
      "dro": 1454,
      "kon": 1455,
      "kat": 1456,
      "lay": 1457,
      "okey": 1458,
      "pm": 1459,
      "spi": 1460,
      "scar": 1461,
      "srs": 1462,
      "um": 1463,
      "wt": 1464,
      "won": 1465,
      "weak": 1466,
      "xdd": 1467,
      "yup": 1468,
      "rep": 1469,
      "regi": 1470,
      "recon": 1471,
      "ind": 1472,
      "anci": 1473,
      "meme": 1474,
      "stra": 1475,
      "each": 1476,
      "oot": 1477,
      "eze": 1478,
      "their": 1479,
      "shi": 1480,
      "forget": 1481,
      "live": 1482,
      "sue": 1483,
      "suport": 1484,
      "laugh": 1485,
      "dele": 1486,
      "deff": 1487,
      "ddy": 1488,
      "oflegend": 1489,
      "yourself": 1490,
      "both": 1491,
      "1000": 1492,
      "tryhard": 1493,
      "anymore": 1494,
      "buyback": 1495,
      "mira": 1496,
      "hahha": 1497,
      "shadow": 1498,
      "tttt": 1499,
      "jojojojo": 1500,
      "jesus": 1501,
      "chance": 1502,
      "deny": 1503,
      "captain": 1504,
      "another": 1505,
      "leagueoflegend": 1506,
      "fountain": 1507,
      "register": 1508,
      "leagueoflegends": 1509,
      "27": 1510,
      "8k": 1511,
      "ast": 1512,
      "age": 1513,
      "aut": 1514,
      "bt": 1515,
      "bre": 1516,
      "cen": 1517,
      "ft": 1518,
      "fem": 1519,
      "gar": 1520,
      "hc": 1521,
      "hurt": 1522,
      "ji": 1523,
      "ky": 1524,
      "mal": 1525,
      "ns": 1526,
      "pea": 1527,
      "pee": 1528,
      "pff": 1529,
      "pical": 1530,
      "tq": 1531,
      "tre": 1532,
      "tan": 1533,
      "v4": 1534,
      "wl": 1535,
      "wy": 1536,
      "gger": 1537,
      "hea": 1538,
      "loo": 1539,
      "stro": 1540,
      "streak": 1541,
      "enjo": 1542,
      "robin": 1543,
      "bably": 1544,
      "sut": 1545,
      "home": 1546,
      "tact": 1547,
      "combo": 1548,
      "hahahaa": 1549,
      "fag": 1550,
      "dive": 1551,
      "diff": 1552,
      "mins": 1553,
      "rude": 1554,
      "witch": 1555,
      "prot": 1556,
      "probably": 1557,
      "track": 1558,
      "omfg": 1559,
      "abuse": 1560,
      "finally": 1561,
      "someone": 1562,
      "hahahha": 1563,
      "vol": 1564,
      "rune": 1565,
      "bull": 1566,
      "sick": 1567,
      "sher": 1568,
      "rrrr": 1569,
      "gggggggggggggggg": 1570,
      "wipe": 1571,
      "offline": 1572,
      "cyka": 1573,
      "vision": 1574,
      "wisp": 1575,
      "ancient": 1576,
      "delete": 1577,
      "female": 1578,
      "peace": 1579,
      "enjoy": 1580,
      "19": 1581,
      "40": 1582,
      "agg": 1583,
      "break": 1584,
      "dra": 1585,
      "ep": 1586,
      "fly": 1587,
      "ftw": 1588,
      "hue": 1589,
      "ive": 1590,
      "ms": 1591,
      "mouse": 1592,
      "phe": 1593,
      "pho": 1594,
      "pow": 1595,
      "ror": 1596,
      "room": 1597,
      "sw": 1598,
      "sma": 1599,
      "ud": 1600,
      "val": 1601,
      "wut": 1602,
      "xic": 1603,
      "zor": 1604,
      "zing": 1605,
      "sea": 1606,
      "reprot": 1607,
      "anti": 1608,
      "stick": 1609,
      "oop": 1610,
      "dot": 1611,
      "tol": 1612,
      "show": 1613,
      "ball": 1614,
      "rax": 1615,
      "juke": 1616,
      "map": 1617,
      "type": 1618,
      "unch": 1619,
      "timber": 1620,
      "comm": 1621,
      "fact": 1622,
      "div": 1623,
      "whatever": 1624,
      "ness": 1625,
      "xdxd": 1626,
      "dual": 1627,
      "dagon": 1628,
      "nap": 1629,
      "manta": 1630,
      "night": 1631,
      "kaka": 1632,
      "invis": 1633,
      "check": 1634,
      "world": 1635,
      "jajaj": 1636,
      "bottle": 1637,
      "blue": 1638,
      "yolo": 1639,
      "server": 1640,
      "russians": 1641,
      "monkey": 1642,
      "boring": 1643,
      "create": 1644,
      "purpose": 1645,
      "tnx": 1646,
      "seriously": 1647,
      "since": 1648,
      "quiet": 1649,
      "weaver": 1650,
      "amazing": 1651,
      "drop": 1652,
      "straight": 1653,
      "26": 1654,
      "29": 1655,
      "300": 1656,
      ">>": 1657,
      "__": 1658,
      "alone": 1659,
      "bane": 1660,
      "block": 1661,
      "burn": 1662,
      "brist": 1663,
      "cc": 1664,
      "cute": 1665,
      "dend": 1666,
      "dru": 1667,
      "fing": 1668,
      "gen": 1669,
      "hone": 1670,
      "job": 1671,
      "llow": 1672,
      "m8": 1673,
      "mr": 1674,
      "mme": 1675,
      "mue": 1676,
      "mkb": 1677,
      "os": 1678,
      "old": 1679,
      "pen": 1680,
      "sing": 1681,
      "slad": 1682,
      "tit": 1683,
      "tis": 1684,
      "tem": 1685,
      "t_t": 1686,
      "xaxax": 1687,
      "yay": 1688,
      "seem": 1689,
      "passive": 1690,
      "har": 1691,
      "hack": 1692,
      "noo": 1693,
      "ren": 1694,
      "log": 1695,
      "mega": 1696,
      "arm": 1697,
      "full": 1698,
      "ayy": 1699,
      "fuckign": 1700,
      "alright": 1701,
      "atta": 1702,
      "razor": 1703,
      "liar": 1704,
      "surp": 1705,
      "main": 1706,
      "midas": 1707,
      "dec": 1708,
      "undy": 1709,
      "until": 1710,
      "rise": 1711,
      "comme": 1712,
      "fam": 1713,
      "lycan": 1714,
      "mine": 1715,
      "loser": 1716,
      "rus": 1717,
      "rupt": 1718,
      "ird": 1719,
      "bois": 1720,
      "sleep": 1721,
      "cour": 1722,
      "glgl": 1723,
      "abba": 1724,
      "find": 1725,
      "jajaja": 1726,
      "silence": 1727,
      "else": 1728,
      "press": 1729,
      "spawn": 1730,
      "tuskar": 1731,
      "fcking": 1732,
      "smart": 1733,
      "hhhhhhhh": 1734,
      "mmmmmmmm": 1735,
      "kinda": 1736,
      "crash": 1737,
      "dunno": 1738,
      "ikr": 1739,
      "plain": 1740,
      "catch": 1741,
      "welcome": 1742,
      "internet": 1743,
      "wooden": 1744,
      "pugna": 1745,
      "srsly": 1746,
      "miracle": 1747,
      "tactical": 1748,
      "bullshit": 1749,
      "power": 1750,
      "finger": 1751,
      "sladar": 1752,
      "!@": 1753,
      "36": 1754,
      "@@": 1755,
      "aha": 1756,
      "cd": 1757,
      "eld": 1758,
      "echo": 1759,
      "f9": 1760,
      "hha": 1761,
      "hor": 1762,
      "jsut": 1763,
      "llo": 1764,
      "lal": 1765,
      "mga": 1766,
      "mic": 1767,
      "nn": 1768,
      "nv": 1769,
      "pis": 1770,
      "pot": 1771,
      "rich": 1772,
      "side": 1773,
      "vroom": 1774,
      "wish": 1775,
      "pay": 1776,
      "heh": 1777,
      "heart": 1778,
      "nor": 1779,
      "reme": 1780,
      "annoy": 1781,
      "beat": 1782,
      "stri": 1783,
      "ero": 1784,
      "door": 1785,
      "fuq": 1786,
      "roam": 1787,
      "gaga": 1788,
      "shot": 1789,
      "list": 1790,
      "sun": 1791,
      "super": 1792,
      "max": 1793,
      "ssic": 1794,
      "typical": 1795,
      "wahaha": 1796,
      "vern": 1797,
      "pud": 1798,
      "pure": 1799,
      "daz": 1800,
      "daun": 1801,
      "prob": 1802,
      "ility": 1803,
      "person": 1804,
      "asd": 1805,
      "ffs": 1806,
      "feeding": 1807,
      "trade": 1808,
      "farmer": 1809,
      "kkk": 1810,
      "axa": 1811,
      "hahhaha": 1812,
      "ahhaha": 1813,
      "quick": 1814,
      "wwww": 1815,
      "oooooooooooo": 1816,
      "everything": 1817,
      "inten": 1818,
      "magina": 1819,
      "morph": 1820,
      "two": 1821,
      "mongo": 1822,
      "nerd": 1823,
      "nigger": 1824,
      "kind": 1825,
      "bbbbbbbb": 1826,
      "soon": 1827,
      "auto": 1828,
      "scared": 1829,
      "tony": 1830,
      "wonder": 1831,
      "volvo": 1832,
      "epic": 1833,
      "smack": 1834,
      "dendi": 1835,
      "honest": 1836,
      "attack": 1837,
      "surprise": 1838,
      "nvm": 1839,
      ".-": 1840,
      "1vs": 1841,
      "33": 1842,
      "99": 1843,
      "eul": 1844,
      "fke": 1845,
      "glad": 1846,
      "gpm": 1847,
      "hn": 1848,
      "hhaha": 1849,
      "kay": 1850,
      "kka": 1851,
      "ml": 1852,
      "nic": 1853,
      "ohh": 1854,
      "sat": 1855,
      "shan": 1856,
      "tha": 1857,
      "tor": 1858,
      "touch": 1859,
      "hear": 1860,
      "nobody": 1861,
      "load": 1862,
      "beg": 1863,
      "meh": 1864,
      "ito": 1865,
      "ither": 1866,
      "stion": 1867,
      "lll": 1868,
      "ezz": 1869,
      "ezzz": 1870,
      "wpwp": 1871,
      "rock": 1872,
      "roshan": 1873,
      "tom": 1874,
      "toxic": 1875,
      "gaming": 1876,
      "sol": 1877,
      "bag": 1878,
      "bas": 1879,
      "rag": 1880,
      "force": 1881,
      "jump": 1882,
      "lawl": 1883,
      "hoho": 1884,
      "delay": 1885,
      "wak": 1886,
      "und": 1887,
      "rible": 1888,
      "tired": 1889,
      "comment": 1890,
      "samue": 1891,
      "pect": 1892,
      "dad": 1893,
      "dagger": 1894,
      "naix": 1895,
      "asi": 1896,
      "pos": 1897,
      "trap": 1898,
      "chen": 1899,
      "able": 1900,
      "ability": 1901,
      "whore": 1902,
      "mum": 1903,
      "might": 1904,
      "fire": 1905,
      "bug": 1906,
      "brah": 1907,
      "exc": 1908,
      "igno": 1909,
      "yoyo": 1910,
      "magic": 1911,
      "disconnect": 1912,
      "matter": 1913,
      "scre": 1914,
      "safelane": 1915,
      "yyyyyyyy": 1916,
      "ssssssss": 1917,
      "huh": 1918,
      "classic": 1919,
      "rapira": 1920,
      "reconnecte": 1921,
      "greedy": 1922,
      "nooob": 1923,
      "double": 1924,
      "wyvern": 1925,
      "ruptor": 1926,
      "remember": 1927,
      "strike": 1928,
      "#!@": 1929,
      "-.-": 1930,
      "28": 1931,
      "2v5": 1932,
      ":*": 1933,
      "ak": 1934,
      "awe": 1935,
      "ago": 1936,
      "ahahahah": 1937,
      "bark": 1938,
      "cal": 1939,
      "dnt": 1940,
      "eye": 1941,
      "either": 1942,
      "fid": 1943,
      "fall": 1944,
      "gf": 1945,
      "gt": 1946,
      "gan": 1947,
      "goo": 1948,
      "gli": 1949,
      "hm": 1950,
      "iu": 1951,
      "kar": 1952,
      "lp": 1953,
      "land": 1954,
      "lang": 1955,
      "mar": 1956,
      "nut": 1957,
      "o0": 1958,
      "pink": 1959,
      "rge": 1960,
      "song": 1961,
      "sound": 1962,
      "score": 1963,
      "tbh": 1964,
      "turn": 1965,
      "teach": 1966,
      "ulol": 1967,
      "xddd": 1968,
      "zue": 1969,
      "nob": 1970,
      "non": 1971,
      "respawn": 1972,
      "inst": 1973,
      "ange": 1974,
      "lool": 1975,
      "beast": 1976,
      "men": 1977,
      "mess": 1978,
      "meet": 1979,
      "melee": 1980,
      "stream": 1981,
      "furi": 1982,
      "plss": 1983,
      "thn": 1984,
      "enge": 1985,
      "enix": 1986,
      "ider": 1987,
      "total": 1988,
      "ala": 1989,
      "shh": 1990,
      "bak": 1991,
      "ica": 1992,
      "ract": 1993,
      "lame": 1994,
      "des": 1995,
      "utut": 1996,
      "fav": 1997,
      "fake": 1998,
      "useful": 1999,
      "yeh": 2000,
      "dafuq": 2001,
      "write": 2002,
      "slut": 2003,
      "rdy": 2004,
      "camp": 2005,
      "possi": 2006,
      "fkn": 2007,
      "chee": 2008,
      "suppose": 2009,
      "absol": 2010,
      "john": 2011,
      "bottom": 2012,
      "file": 2013,
      "frog": 2014,
      "ranger": 2015,
      "alchi": 2016,
      "againt": 2017,
      "sigh": 2018,
      "shet": 2019,
      "dddddddddddd": 2020,
      "expect": 2021,
      "motherfucker": 2022,
      "quite": 2023,
      "russia": 2024,
      "disruptor": 2025,
      "stron": 2026,
      "dogshit": 2027,
      "randome": 2028,
      "scrub": 2029,
      "ahahha": 2030,
      "agree": 2031,
      "question": 2032,
      "legit": 2033,
      "ground": 2034,
      "recor": 2035,
      "tilt": 2036,
      "ąąąą": 2037,
      "prio": 2038,
      "bruh": 2039,
      "kontol": 2040,
      "katka": 2041,
      "spirit": 2042,
      "brew": 2043,
      "aggro": 2044,
      "phoenix": 2045,
      "mongolo": 2046,
      "honestly": 2047,
      "undye": 2048,
      "samuel": 2049,
      "23": 2050,
      "4head": 2051,
      "60": 2052,
      "asa": 2053,
      "appa": 2054,
      "bm": 2055,
      "bus": 2056,
      "bunch": 2057,
      "clo": 2058,
      "cur": 2059,
      "ew": 2060,
      "eff": 2061,
      "food": 2062,
      "glo": 2063,
      "gal": 2064,
      "gut": 2065,
      "gtf": 2066,
      "grat": 2067,
      "gang": 2068,
      "ino": 2069,
      "kr": 2070,
      "kee": 2071,
      "kot": 2072,
      "ls": 2073,
      "lt": 2074,
      "nat": 2075,
      "pha": 2076,
      "pid": 2077,
      "pract": 2078,
      "scum": 2079,
      "snap": 2080,
      "t2": 2081,
      "till": 2082,
      "tic": 2083,
      "twitch": 2084,
      "wu": 2085,
      "xdddd": 2086,
      "ys": 2087,
      "half": 2088,
      "ggle": 2089,
      "heu": 2090,
      "nono": 2091,
      "respect": 2092,
      "refre": 2093,
      "repor": 2094,
      "rebor": 2095,
      "anta": 2096,
      "anim": 2097,
      "lob": 2098,
      "best": 2099,
      "bear": 2100,
      "mek": 2101,
      "orac": 2102,
      "sto": 2103,
      "sty": 2104,
      "llenge": 2105,
      "ead": 2106,
      "eza": 2107,
      "once": 2108,
      "onix": 2109,
      "thin": 2110,
      "ence": 2111,
      "enter": 2112,
      "idn": 2113,
      "tot": 2114,
      "fucktard": 2115,
      "aly": 2116,
      "short": 2117,
      "shop": 2118,
      "shhh": 2119,
      "cos": 2120,
      "babe": 2121,
      "raid": 2122,
      "rather": 2123,
      "suff": 2124,
      "sumail": 2125,
      "chi": 2126,
      "chine": 2127,
      "chick": 2128,
      "mas": 2129,
      "master": 2130,
      "hot": 2131,
      "sss": 2132,
      "decent": 2133,
      "destro": 2134,
      "wag": 2135,
      "tire": 2136,
      "complain": 2137,
      "urself": 2138,
      "sake": 2139,
      "dirty": 2140,
      "which": 2141,
      "pub": 2142,
      "peci": 2143,
      "yellow": 2144,
      "rule": 2145,
      "daddy": 2146,
      "yeap": 2147,
      "cept": 2148,
      "slay": 2149,
      "pota": 2150,
      "fking": 2151,
      "kak": 2152,
      "hahahahahaha": 2153,
      "connec": 2154,
      "sucker": 2155,
      "kiro": 2156,
      "terror": 2157,
      "vod": 2158,
      "yyy": 2159,
      "buff": 2160,
      "buddy": 2161,
      "water": 2162,
      "earth": 2163,
      "2015": 2164,
      "spam": 2165,
      "spare": 2166,
      "twice": 2167,
      "hehehe": 2168,
      "forever": 2169,
      "brb": 2170,
      "bring": 2171,
      "afraid": 2172,
      "invoke": 2173,
      "angry": 2174,
      "smh": 2175,
      "charge": 2176,
      "challenge": 2177,
      "nub": 2178,
      "zzzzzzzzzzzzzzzz": 2179,
      "radiance": 2180,
      "uuuuuuuu": 2181,
      "eeeeeeeeeeeeeeeeeeeeeeeeeeeeeeee": 2182,
      "clash": 2183,
      "gr8": 2184,
      "cooldown": 2185,
      "alive": 2186,
      "ahhaah": 2187,
      "rently": 2188,
      "kunka": 2189,
      "kunkka": 2190,
      "walk": 2191,
      "sexy": 2192,
      "indeed": 2193,
      "autist": 2194,
      "btm": 2195,
      "treant": 2196,
      "loose": 2197,
      "divine": 2198,
      "single": 2199,
      "undying": 2200,
      "annoying": 2201,
      "excuse": 2202,
      "ignore": 2203,
      "calm": 2204,
      "favor": 2205,
      "possible": 2206,
      "absolute": 2207,
      "stronk": 2208,
      "mongoloid": 2209,
      "kotl": 2210,
      "reborn": 2211,
      "oracle": 2212,
      "suffer": 2213,
      "destroy": 2214,
      "pecially": 2215,
      ".=": 2216,
      "35": 2217,
      "3rd": 2218,
      "44": 2219,
      "4v4": 2220,
      "88": 2221,
      "90": 2222,
      ":'": 2223,
      "=(": 2224,
      "ai": 2225,
      "aba": 2226,
      "agi": 2227,
      "app": 2228,
      "assi": 2229,
      "bon": 2230,
      "bur": 2231,
      "bul": 2232,
      "bout": 2233,
      "brow": 2234,
      "book": 2235,
      "cs": 2236,
      "cor": 2237,
      "cut": 2238,
      "crea": 2239,
      "cya": 2240,
      "ddo": 2241,
      "dee": 2242,
      "fy": 2243,
      "fool": 2244,
      "gn": 2245,
      "gma": 2246,
      "hr": 2247,
      "hour": 2248,
      "house": 2249,
      "ia": 2250,
      "imm": 2251,
      "ius": 2252,
      "ize": 2253,
      "iance": 2254,
      "jer": 2255,
      "jaa": 2256,
      "kl": 2257,
      "kn": 2258,
      "mk": 2259,
      "mou": 2260,
      "mba": 2261,
      "mark": 2262,
      "ning": 2263,
      "nce": 2264,
      "near": 2265,
      "oi": 2266,
      "ota": 2267,
      "pter": 2268,
      "sj": 2269,
      "sr": 2270,
      "sand": 2271,
      "snow": 2272,
      "sda": 2273,
      "ts": 2274,
      "tat": 2275,
      "tran": 2276,
      "tang": 2277,
      "ulo": 2278,
      "vy": 2279,
      "vin": 2280,
      "vas": 2281,
      "yas": 2282,
      "zero": 2283,
      "sear": 2284,
      "packet": 2285,
      "hai": 2286,
      "ggs": 2287,
      "nooooo": 2288,
      "noooo": 2289,
      "noise": 2290,
      "ref": 2291,
      "reg": 2292,
      "rest": 2293,
      "remake": 2294,
      "anje": 2295,
      "los": 2296,
      "lolol": 2297,
      "beh": 2298,
      "begin": 2299,
      "itch": 2300,
      "cke": 2301,
      "stu": 2302,
      "star": 2303,
      "stal": 2304,
      "stat": 2305,
      "stic": 2306,
      "ooh": 2307,
      "dodge": 2308,
      "around": 2309,
      "fuke": 2310,
      "wpo": 2311,
      "roll": 2312,
      "ross": 2313,
      "issue": 2314,
      "alce": 2315,
      "ality": 2316,
      "shoot": 2317,
      "cover": 2318,
      "cold": 2319,
      "west": 2320,
      "weird": 2321,
      "atm": 2322,
      "soz": 2323,
      "basher": 2324,
      "got": 2325,
      "lil": 2326,
      "lick": 2327,
      "sum": 2328,
      "chto": 2329,
      "mai": 2330,
      "mida": 2331,
      "wave": 2332,
      "waht": 2333,
      "tab": 2334,
      "taur": 2335,
      "taht": 2336,
      "tie": 2337,
      "timing": 2338,
      "comback": 2339,
      "fak": 2340,
      "lyin": 2341,
      "mines": 2342,
      "irth": 2343,
      "dare": 2344,
      "profile": 2345,
      "perate": 2346,
      "perfe": 2347,
      "jakiro": 2348,
      "mango": 2349,
      "manner": 2350,
      "bola": 2351,
      "bother": 2352,
      "bomb": 2353,
      "times": 2354,
      "seeker": 2355,
      "invok": 2356,
      "cheer": 2357,
      "leader": 2358,
      "wowow": 2359,
      "especially": 2360,
      "10k": 2361,
      "viva": 2362,
      "thanks": 2363,
      "mie": 2364,
      "mista": 2365,
      "terrible": 2366,
      "deal": 2367,
      "ggggg": 2368,
      "zzzzz": 2369,
      "aaaaaa": 2370,
      "secret": 2371,
      "bully": 2372,
      "sister": 2373,
      "realize": 2374,
      "green": 2375,
      "rata": 2376,
      "magnu": 2377,
      "......": 2378,
      "spend": 2379,
      "skilled": 2380,
      "stage": 2381,
      "liek": 2382,
      "chase": 2383,
      "wiat": 2384,
      "nerf": 2385,
      "putin": 2386,
      "puter": 2387,
      "trol": 2388,
      "woah": 2389,
      "trust": 2390,
      "truth": 2391,
      "agha": 2392,
      "crap": 2393,
      "huge": 2394,
      "phone": 2395,
      "tional": 2396,
      "trilane": 2397,
      "change": 2398,
      "rapier": 2399,
      "laning": 2400,
      "oooooooooooooooooooo": 2401,
      "iiiiiiii": 2402,
      "lololol": 2403,
      "prior": 2404,
      "blademail": 2405,
      "centaur": 2406,
      "peenoise": 2407,
      "tango": 2408,
      "pheonix": 2409,
      "logic": 2410,
      "decide": 2411,
      "abbadon": 2412,
      "micro": 2413,
      "piss": 2414,
      "potm": 2415,
      "intentional": 2416,
      "mlg": 2417,
      "screen": 2418,
      "o0o": 2419,
      "install": 2420,
      "furion": 2421,
      "desperate": 2422,
      "record": 2423,
      "apparently": 2424,
      "global": 2425,
      "gtfo": 2426,
      "phase": 2427,
      "chinese": 2428,
      "vodka": 2429,
      "assist": 2430,
      "ulous": 2431,
      "mineski": 2432,
      "perfect": 2433,
      "mistake": 2434,
      "''": 2435,
      "--": 2436,
      "0w": 2437,
      "1min": 2438,
      "2mins": 2439,
      "400": 2440,
      "4vs": 2441,
      "ap": 2442,
      "av": 2443,
      "aff": 2444,
      "amer": 2445,
      "blow": 2446,
      "cj": 2447,
      "cate": 2448,
      "dw": 2449,
      "dce": 2450,
      "dark": 2451,
      "ese": 2452,
      "ere": 2453,
      "est": 2454,
      "edu": 2455,
      "eban": 2456,
      "ebola": 2457,
      "fan": 2458,
      "fort": 2459,
      "fish": 2460,
      "fear": 2461,
      "gho": 2462,
      "gly": 2463,
      "h3": 2464,
      "iw": 2465,
      "ido": 2466,
      "ilet": 2467,
      "ious": 2468,
      "jh": 2469,
      "jja": 2470,
      "ku": 2471,
      "ken": 2472,
      "ldo": 2473,
      "ling": 2474,
      "mmy": 2475,
      "mood": 2476,
      "nal": 2477,
      "oct": 2478,
      "ohhh": 2479,
      "pin": 2480,
      "pun": 2481,
      "punch": 2482,
      "qq": 2483,
      "rk": 2484,
      "rid": 2485,
      "rate": 2486,
      "rite": 2487,
      "rlly": 2488,
      "slo": 2489,
      "sou": 2490,
      "sla": 2491,
      "sce": 2492,
      "spo": 2493,
      "sim": 2494,
      "tch": 2495,
      "tear": 2496,
      "tough": 2497,
      "uh": 2498,
      "uz": 2499,
      "vir": 2500,
      "vanta": 2501,
      "wc": 2502,
      "woooo": 2503,
      "w0w": 2504,
      "xa": 2505,
      "xaxa": 2506,
      "zy": 2507,
      "sell": 2508,
      "seren": 2509,
      "pare": 2510,
      "pain": 2511,
      "pass": 2512,
      "pact": 2513,
      "haah": 2514,
      "haaaaaaaaa": 2515,
      "hallo": 2516,
      "ggw": 2517,
      "ggy": 2518,
      "rer": 2519,
      "reat": 2520,
      "ress": 2521,
      "replay": 2522,
      "reci": 2523,
      "loool": 2524,
      "bed": 2525,
      "ben": 2526,
      "belong": 2527,
      "merc": 2528,
      "ory": 2529,
      "oud": 2530,
      "hahaah": 2531,
      "error": 2532,
      "arcan": 2533,
      "ply": 2534,
      "plzz": 2535,
      "plus": 2536,
      "pliz": 2537,
      "ezi": 2538,
      "ezy": 2539,
      "eng": 2540,
      "rot": 2541,
      "rono": 2542,
      "road": 2543,
      "rolf": 2544,
      "rocket": 2545,
      "ism": 2546,
      "isra": 2547,
      "aya": 2548,
      "tomor": 2549,
      "toilet": 2550,
      "fucken": 2551,
      "hater": 2552,
      "gago": 2553,
      "gaem": 2554,
      "eet": 2555,
      "shy": 2556,
      "cow": 2557,
      "les": 2558,
      "sos": 2559,
      "basu": 2560,
      "babi": 2561,
      "games": 2562,
      "iculous": 2563,
      "rad": 2564,
      "alliance": 2565,
      "lah": 2566,
      "lap": 2567,
      "chu": 2568,
      "child": 2569,
      "chrono": 2570,
      "mama": 2571,
      "midd": 2572,
      "hold": 2573,
      "homie": 2574,
      "deward": 2575,
      "wai": 2576,
      "wake": 2577,
      "waaa": 2578,
      "waow": 2579,
      "dden": 2580,
      "tam": 2581,
      "taunt": 2582,
      "taste": 2583,
      "mode": 2584,
      "moment": 2585,
      "icefrog": 2586,
      "tier": 2587,
      "common": 2588,
      "computer": 2589,
      "sah": 2590,
      "winter": 2591,
      "winner": 2592,
      "dildo": 2593,
      "neut": 2594,
      "mmar": 2595,
      "pipe": 2596,
      "tfw": 2597,
      "nake": 2598,
      "onect": 2599,
      "prove": 2600,
      "promi": 2601,
      "jam": 2602,
      "boi": 2603,
      "bom": 2604,
      "board": 2605,
      "slar": 2606,
      "badly": 2607,
      "button": 2608,
      "cast": 2609,
      "ulty": 2610,
      "test": 2611,
      "dieback": 2612,
      "outta": 2613,
      "outplay": 2614,
      "read": 2615,
      "talking": 2616,
      "blabla": 2617,
      "dota2": 2618,
      "hihi": 2619,
      "history": 2620,
      "anyways": 2621,
      "vie": 2622,
      "hahhaa": 2623,
      "some1": 2624,
      "sometimes": 2625,
      "fix": 2626,
      "boyz": 2627,
      "impact": 2628,
      "skil": 2629,
      "sia": 2630,
      "sion": 2631,
      "realy": 2632,
      "snip": 2633,
      "eeeeeeeeeeee": 2634,
      "advanta": 2635,
      "bracket": 2636,
      ".......": 2637,
      "dickhead": 2638,
      "forest": 2639,
      "fcke": 2640,
      "jojojo": 2641,
      "ragequit": 2642,
      "rrr": 2643,
      "champ": 2644,
      "wise": 2645,
      "boost": 2646,
      "wolf": 2647,
      "counterpick": 2648,
      "kappaross": 2649,
      "number": 2650,
      "braindead": 2651,
      "drink": 2652,
      "ahahahahah": 2653,
      "uuuuuu": 2654,
      "battle": 2655,
      "freeze": 2656,
      "porn": 2657,
      "grand": 2658,
      "555": 2659,
      "hmmm": 2660,
      "pray": 2661,
      "proud": 2662,
      "gogogo": 2663,
      "rubic": 2664,
      "grammar": 2665,
      "place": 2666,
      "blackhole": 2667,
      "tube": 2668,
      "warlock": 2669,
      "welp": 2670,
      "llllllllllllllll": 2671,
      "wkwkw": 2672,
      "spike": 2673,
      "wtfast": 2674,
      "tttttttt": 2675,
      "pfff": 2676,
      "heavy": 2677,
      "diffe": 2678,
      "huehue": 2679,
      "swear": 2680,
      "value": 2681,
      "dotka": 2682,
      "command": 2683,
      ">>>>": 2684,
      "bristle": 2685,
      "templ": 2686,
      "xaxaxaxax": 2687,
      "elder": 2688,
      "normal": 2689,
      "sunstrike": 2690,
      "pudg": 2691,
      "dazle": 2692,
      "satan": 2693,
      "loading": 2694,
      "awesome": 2695,
      "ganke": 2696,
      "thnx": 2697,
      "nature": 2698,
      "pidar": 2699,
      "practice": 2700,
      "refresher": 2701,
      "lobby": 2702,
      "chicken": 2703,
      "slayer": 2704,
      "potato": 2705,
      "connection": 2706,
      ":'(": 2707,
      "brown": 2708,
      "search": 2709,
      "stuff": 2710,
      "priority": 2711,
      "ridiculous": 2712,
      "scepter": 2713,
      "spoil": 2714,
      "virgin": 2715,
      "serenity": 2716,
      "israel": 2717,
      "tomorrow": 2718,
      "basura": 2719,
      "promise": 2720,
      "advantage": 2721,
      "1v": 2722,
      "21": 2723,
      "2p": 2724,
      "2x": 2725,
      "2ez": 2726,
      "34": 2727,
      "38": 2728,
      "3min": 2729,
      "322": 2730,
      "45": 2731,
      "48": 2732,
      "4v": 2733,
      "600": 2734,
      "7k": 2735,
      "80": 2736,
      "85": 2737,
      "9k": 2738,
      "900": 2739,
      "::": 2740,
      ":>": 2741,
      "=/": 2742,
      "aid": 2743,
      "aver": 2744,
      "ape": 2745,
      "avenge": 2746,
      "alot": 2747,
      "bri": 2748,
      "bless": 2749,
      "bird": 2750,
      "coo": 2751,
      "cri": 2752,
      "clea": 2753,
      "ction": 2754,
      "df": 2755,
      "dn": 2756,
      "dan": 2757,
      "dar": 2758,
      "date": 2759,
      "dance": 2760,
      "ef": 2761,
      "egg": 2762,
      "eto": 2763,
      "ele": 2764,
      "ego": 2765,
      "edge": 2766,
      "elegi": 2767,
      "fr": 2768,
      "fer": 2769,
      "ffu": 2770,
      "fal": 2771,
      "fil": 2772,
      "flesh": 2773,
      "foot": 2774,
      "gv": 2775,
      "ghaha": 2776,
      "hg": 2777,
      "hga": 2778,
      "hil": 2779,
      "hide": 2780,
      "jst": 2781,
      "kit": 2782,
      "kda": 2783,
      "lb": 2784,
      "lar": 2785,
      "lve": 2786,
      "lic": 2787,
      "link": 2788,
      "l2p": 2789,
      "mit": 2790,
      "mob": 2791,
      "mong": 2792,
      "mmer": 2793,
      "oke": 2794,
      "py": 2795,
      "pz": 2796,
      "poo": 2797,
      "poun": 2798,
      "qw": 2799,
      "rl": 2800,
      "ris": 2801,
      "ral": 2802,
      "rpe": 2803,
      "rng": 2804,
      "rough": 2805,
      "rmk": 2806,
      "slot": 2807,
      "sange": 2808,
      "tv": 2809,
      "tar": 2810,
      "tpe": 2811,
      "tent": 2812,
      "u2": 2813,
      "ui": 2814,
      "usa": 2815,
      "wb": 2816,
      "wooo": 2817,
      "xo": 2818,
      "xy": 2819,
      "xdddddddddddddddd": 2820,
      "yr": 2821,
      "yun": 2822,
      "zi": 2823,
      "sen": 2824,
      "par": 2825,
      "pati": 2826,
      "paly": 2827,
      "paus": 2828,
      "panic": 2829,
      "hav": 2830,
      "ggwo": 2831,
      "hee": 2832,
      "hex": 2833,
      "nom": 2834,
      "noice": 2835,
      "rex": 2836,
      "repe": 2837,
      "recomend": 2838,
      "revenge": 2839,
      "ins": 2840,
      "ingame": 2841,
      "inch": 2842,
      "incom": 2843,
      "ani": 2844,
      "aner": 2845,
      "bey": 2846,
      "med": 2847,
      "orch": 2848,
      "ought": 2849,
      "stur": 2850,
      "stone": 2851,
      "strat": 2852,
      "err": 2853,
      "fuy": 2854,
      "fury": 2855,
      "fully": 2856,
      "ond": 2857,
      "ony": 2858,
      "thu": 2859,
      "thy": 2860,
      "thsi": 2861,
      "notlike": 2862,
      "entire": 2863,
      "iss": 2864,
      "aye": 2865,
      "fucke": 2866,
      "fuckwit": 2867,
      "alre": 2868,
      "ortal": 2869,
      "portant": 2870,
      "sht": 2871,
      "shu": 2872,
      "como": 2873,
      "leh": 2874,
      "weh": 2875,
      "wepe": 2876,
      "reporten": 2877,
      "ator": 2878,
      "atleast": 2879,
      "som": 2880,
      "bage": 2881,
      "bama": 2882,
      "baia": 2883,
      "illu": 2884,
      "raci": 2885,
      "noobs": 2886,
      "jus": 2887,
      "suka": 2888,
      "las": 2889,
      "lack": 2890,
      "christ": 2891,
      "mider": 2892,
      "hop": 2893,
      "myself": 2894,
      "teamate": 2895,
      "teamwork": 2896,
      "deso": 2897,
      "defin": 2898,
      "ware": 2899,
      "tau": 2900,
      "unless": 2901,
      "uninstall": 2902,
      "tim": 2903,
      "tive": 2904,
      "comp": 2905,
      "urf": 2906,
      "sama": 2907,
      "fac": 2908,
      "diffu": 2909,
      "playe": 2910,
      "playing": 2911,
      "whine": 2912,
      "pull": 2913,
      "pussi": 2914,
      "piz": 2915,
      "due": 2916,
      "dump": 2917,
      "dam": 2918,
      "nax": 2919,
      "proper": 2920,
      "backtrack": 2921,
      "carri": 2922,
      "hang": 2923,
      "hanim": 2924,
      "butter": 2925,
      "cape": 2926,
      "gift": 2927,
      "gimme": 2928,
      "pog": 2929,
      "train": 2930,
      "nig": 2931,
      "ultra": 2932,
      "kaw": 2933,
      "reach": 2934,
      "fed": 2935,
      "few": 2936,
      ":((": 2937,
      "him": 2938,
      "buying": 2939,
      "confir": 2940,
      "control": 2941,
      "luv": 2942,
      "mile": 2943,
      "kick": 2944,
      "somehow": 2945,
      "bie": 2946,
      "aww": 2947,
      "awww": 2948,
      "awful": 2949,
      "fick": 2950,
      "aaaaa": 2951,
      "ooooooooooo": 2952,
      "important": 2953,
      "bush": 2954,
      "shake": 2955,
      "lesson": 2956,
      "sip": 2957,
      "sist": 2958,
      "silver": 2959,
      "blank": 2960,
      "country": 2961,
      "byebye": 2962,
      "snipe": 2963,
      "ultie": 2964,
      "ultimate": 2965,
      "friendly": 2966,
      "braidn": 2967,
      "exp": 2968,
      "extra": 2969,
      "exact": 2970,
      "express": 2971,
      "except": 2972,
      "^^^^": 2973,
      "prepare": 2974,
      "spot": 2975,
      "heheh": 2976,
      "iness": 2977,
      "stain": 2978,
      "missclick": 2979,
      "kkkkk": 2980,
      "actual": 2981,
      "smurf": 2982,
      "jeje": 2983,
      "month": 2984,
      "hhhhhh": 2985,
      "clue": 2986,
      "scri": 2987,
      "nuke": 2988,
      "aghanim": 2989,
      "queue": 2990,
      "vai": 2991,
      "through": 2992,
      "euro": 2993,
      "cliff": 2994,
      "haahahah": 2995,
      "kogut": 2996,
      "porfavor": 2997,
      "purple": 2998,
      "geegee": 2999,
      "bounce": 3000,
      "health": 3001,
      "alien": 3002,
      "grave": 3003,
      "zaza": 3004,
      "lolololo": 3005,
      "choice": 3006,
      "hahahahahha": 3007,
      "visage": 3008,
      "woop": 3009,
      "handle": 3010,
      "kkkkkkkkkkkkkkkk": 3011,
      "doubt": 3012,
      "tbd": 3013,
      "wala": 3014,
      "repport": 3015,
      "tryhards": 3016,
      "cena": 3017,
      "garbage": 3018,
      "malay": 3019,
      "rrrrrrrr": 3020,
      "aggre": 3021,
      "draw": 3022,
      "sweet": 3023,
      "valve": 3024,
      "antimage": 3025,
      "oops": 3026,
      "xdxdxd": 3027,
      "____": 3028,
      "drug": 3029,
      "genius": 3030,
      "noobest": 3031,
      "armlet": 3032,
      "listen": 3033,
      "ooooooooooooo": 3034,
      "bbbbbbbbbbbbbbbb": 3035,
      "basic": 3036,
      "asian": 3037,
      "#!@#!@": 3038,
      "karma": 3039,
      "cheeky": 3040,
      "business": 3041,
      "autistic": 3042,
      "agian": 3043,
      "gmae": 3044,
      "knw": 3045,
      "mouth": 3046,
      "yasha": 3047,
      "regard": 3048,
      "behind": 3049,
      "summail": 3050,
      "ghost": 3051,
      "punish": 3052,
      "simple": 3053,
      "mercy": 3054,
      "babilo": 3055,
      "neutral": 3056,
      "different": 3057,
      "templar": 3058,
      "satanic": 3059,
      "4v6": 3060,
      "average": 3061,
      "elegiggle": 3062,
      "pounce": 3063,
      "rpeort": 3064,
      "target": 3065,
      "pausing": 3066,
      "repel": 3067,
      "orchid": 3068,
      "notlikethis": 3069,
      "racist": 3070,
      "confirm": 3071,
      "braidnead": 3072,
      "exactly": 3073,
      "-)": 3074,
      "2h": 3075,
      "2nd": 3076,
      "2min": 3077,
      "3v5": 3078,
      "350": 3079,
      "43": 3080,
      "49": 3081,
      "420": 3082,
      "51": 3083,
      "52": 3084,
      "54": 3085,
      "59": 3086,
      "66": 3087,
      "6v4": 3088,
      "==": 3089,
      "??": 3090,
      "?|": 3091,
      "?~": 3092,
      "_o": 3093,
      "_pick": 3094,
      "aj": 3095,
      "apa": 3096,
      "alo": 3097,
      "ado": 3098,
      "afa": 3099,
      "ada": 3100,
      "aja": 3101,
      "ahh": 3102,
      "ault": 3103,
      "astr": 3104,
      "ahead": 3105,
      "aight": 3106,
      "ahhh": 3107,
      "ahhhhhhhh": 3108,
      "b4": 3109,
      "b8": 3110,
      "bd": 3111,
      "bay": 3112,
      "bow": 3113,
      "bate": 3114,
      "brea": 3115,
      "blin": 3116,
      "bang": 3117,
      "birth": 3118,
      "cb": 3119,
      "cv": 3120,
      "cw": 3121,
      "cna": 3122,
      "cce": 3123,
      "cleave": 3124,
      "cine": 3125,
      "calc": 3126,
      "conect": 3127,
      "d2": 3128,
      "dh": 3129,
      "dor": 3130,
      "dne": 3131,
      "doooo": 3132,
      "drun": 3133,
      "deep": 3134,
      "dang": 3135,
      "eve": 3136,
      "ede": 3137,
      "esa": 3138,
      "ebal": 3139,
      "eva": 3140,
      "ebat": 3141,
      "ekr": 3142,
      "gob": 3143,
      "gry": 3144,
      "goooo": 3145,
      "gil": 3146,
      "hd": 3147,
      "hs": 3148,
      "hv": 3149,
      "hz": 3150,
      "hur": 3151,
      "hja": 3152,
      "hte": 3153,
      "hgt": 3154,
      "ij": 3155,
      "iy": 3156,
      "i̇": 3157,
      "ire": 3158,
      "jr": 3159,
      "jor": 3160,
      "joo": 3161,
      "jar": 3162,
      "jhahaha": 3163,
      "jim": 3164,
      "kg": 3165,
      "kt": 3166,
      "kw": 3167,
      "kno": 3168,
      "kan": 3169,
      "kra": 3170,
      "kow": 3171,
      "kom": 3172,
      "kite": 3173,
      "lk": 3174,
      "ler": 3175,
      "lma": 3176,
      "lmo": 3177,
      "lul": 3178,
      "lte": 3179,
      "moo": 3180,
      "muy": 3181,
      "mur": 3182,
      "mne": 3183,
      "mpi": 3184,
      "mrd": 3185,
      "muna": 3186,
      "nh": 3187,
      "nee": 3188,
      "nch": 3189,
      "nish": 3190,
      "oj": 3191,
      "olo": 3192,
      "oyu": 3193,
      "olll": 3194,
      "oyoyo": 3195,
      "obama": 3196,
      "o_o": 3197,
      "pd": 3198,
      "ps": 3199,
      "pse": 3200,
      "pit": 3201,
      "pend": 3202,
      "ppe": 3203,
      "psl": 3204,
      "ppo": 3205,
      "pwn": 3206,
      "pouse": 3207,
      "qe": 3208,
      "ron": 3209,
      "sco": 3210,
      "sday": 3211,
      "swer": 3212,
      "site": 3213,
      "sooo": 3214,
      "soooooooooooooooo": 3215,
      "switch": 3216,
      "snake": 3217,
      "t1": 3218,
      "tx": 3219,
      "tend": 3220,
      "tus": 3221,
      "tnc": 3222,
      "uno": 3223,
      "uro": 3224,
      "uage": 3225,
      "ugly": 3226,
      "vl": 3227,
      "vic": 3228,
      "vil": 3229,
      "vate": 3230,
      "vlad": 3231,
      "wf": 3232,
      "wj": 3233,
      "wre": 3234,
      "wee": 3235,
      "wall": 3236,
      "wil": 3237,
      "wif": 3238,
      "wom": 3239,
      "wear": 3240,
      "wirth": 3241,
      "xe": 3242,
      "xx": 3243,
      "xax": 3244,
      "xao": 3245,
      "yer": 3246,
      "yoo": 3247,
      "yee": 3248,
      "zom": 3249,
      "̇e": 3250,
      "": 3251,
      "ａｏ": 3252,
      "ｓｉ": 3253,
      "sere": 3254,
      "pak": 3255,
      "pathe": 3256,
      "para": 3257,
      "part": 3258,
      "parent": 3259,
      "patch": 3260,
      "haahahaha": 3261,
      "ggin": 3262,
      "gget": 3263,
      "hence": 3264,
      "no1": 3265,
      "noe": 3266,
      "none": 3267,
      "noone": 3268,
      "nood": 3269,
      "nooooooooooooooooooooo": 3270,
      "reu": 3271,
      "recom": 3272,
      "reset": 3273,
      "init": 3274,
      "insu": 3275,
      "info": 3276,
      "anar": 3277,
      "anus": 3278,
      "answer": 3279,
      "lok": 3280,
      "lox": 3281,
      "loda": 3282,
      "looooo": 3283,
      "looooooooooooooooo": 3284,
      "bem": 3285,
      "becoz": 3286,
      "meat": 3287,
      "medu": 3288,
      "mepo": 3289,
      "menu": 3290,
      "mexic": 3291,
      "meppo": 3292,
      "orange": 3293,
      "ita": 3294,
      "ith": 3295,
      "cky": 3296,
      "cker": 3297,
      "cken": 3298,
      "erda": 3299,
      "eaz": 3300,
      "east": 3301,
      "ooop": 3302,
      "doe": 3303,
      "doin": 3304,
      "doll": 3305,
      "lolk": 3306,
      "arl": 3307,
      "aru": 3308,
      "arine": 3309,
      "argue": 3310,
      "arious": 3311,
      "fuse": 3312,
      "fuce": 3313,
      "pli": 3314,
      "plx": 3315,
      "plane": 3316,
      "plant": 3317,
      "ont": 3318,
      "thurt": 3319,
      "wpe": 3320,
      "enga": 3321,
      "rof": 3322,
      "isy": 3323,
      "isnt": 3324,
      "iden": 3325,
      "idid": 3326,
      "ident": 3327,
      "toss": 3328,
      "topo": 3329,
      "town": 3330,
      "fuckhead": 3331,
      "ald": 3332,
      "alr": 3333,
      "alt": 3334,
      "alus": 3335,
      "geeeeeeeeeeeeeeeee": 3336,
      "gap": 3337,
      "gas": 3338,
      "gate": 3339,
      "coem": 3340,
      "lest": 3341,
      "leon": 3342,
      "reporta": 3343,
      "reportd": 3344,
      "ati": 3345,
      "aty": 3346,
      "atin": 3347,
      "atra": 3348,
      "soft": 3349,
      "bam": 3350,
      "baka": 3351,
      "gamer": 3352,
      "ican": 3353,
      "ication": 3354,
      "goin": 3355,
      "ket": 3356,
      "rare": 3357,
      "rass": 3358,
      "race": 3359,
      "rawr": 3360,
      "raze": 3361,
      "rava": 3362,
      "alll": 3363,
      "jun": 3364,
      "sur": 3365,
      "sual": 3366,
      "succe": 3367,
      "lau": 3368,
      "lafe": 3369,
      "lagggggggg": 3370,
      "ching": 3371,
      "chong": 3372,
      "mare": 3373,
      "making": 3374,
      "mastur": 3375,
      "major": 3376,
      ".....": 3377,
      "midlane": 3378,
      "hoy": 3379,
      "hola": 3380,
      "tyty": 3381,
      "teamfight": 3382,
      "devil": 3383,
      "wao": 3384,
      "wahahaha": 3385,
      "ddit": 3386,
      "tak": 3387,
      "talo": 3388,
      "une": 3389,
      "gettin": 3390,
      "moar": 3391,
      "mote": 3392,
      "often": 3393,
      "tipical": 3394,
      "compe": 3395,
      "comple": 3396,
      "hahahaah": 3397,
      "shitstain": 3398,
      "sacri": 3399,
      "window": 3400,
      "faka": 3401,
      "fami": 3402,
      "father": 3403,
      "dio": 3404,
      "dist": 3405,
      "di̇e": 3406,
      "usel": 3407,
      "usele": 3408,
      "ote": 3409,
      "zza": 3410,
      "zzy": 3411,
      "whi": 3412,
      "whin": 3413,
      "whoop": 3414,
      "mint": 3415,
      "puj": 3416,
      "publ": 3417,
      "aahaha": 3418,
      "aaah": 3419,
      "mmm": 3420,
      "pino": 3421,
      "goodgame": 3422,
      "goodbye": 3423,
      "yell": 3424,
      "commendation": 3425,
      "guyz": 3426,
      "whyyyyyyyyy": 3427,
      "rush": 3428,
      "russ": 3429,
      "yours": 3430,
      "dup": 3431,
      "dumba": 3432,
      "option": 3433,
      "dami": 3434,
      "daed": 3435,
      "nab": 3436,
      "navi": 3437,
      "nami": 3438,
      "naugh": 3439,
      "prosto": 3440,
      "upset": 3441,
      "usor": 3442,
      "aswell": 3443,
      "jahahaha": 3444,
      "bore": 3445,
      "boss": 3446,
      "boiz": 3447,
      "hant": 3448,
      "bution": 3449,
      "butthurt": 3450,
      "cam": 3451,
      "cafe": 3452,
      "casual": 3453,
      "gigi": 3454,
      "tool": 3455,
      "tooo": 3456,
      "posit": 3457,
      "eeeeee": 3458,
      "ulte": 3459,
      "ulate": 3460,
      "fkin": 3461,
      "cout": 3462,
      "invi": 3463,
      "teh": 3464,
      "tema": 3465,
      "idiota": 3466,
      "omn": 3467,
      "cher": 3468,
      "leap": 3469,
      "hahahahaah": 3470,
      "sadly": 3471,
      "talkin": 3472,
      "join": 3473,
      "esse": 3474,
      "escape": 3475,
      "dotacine": 3476,
      "muito": 3477,
      "tryhar": 3478,
      "bite": 3479,
      "bitter": 3480,
      "defen": 3481,
      "contin": 3482,
      "contri": 3483,
      "confid": 3484,
      "mierda": 3485,
      "hahhahaha": 3486,
      "somebody": 3487,
      "bien": 3488,
      "biva": 3489,
      "cume": 3490,
      "cuck": 3491,
      "ahga": 3492,
      "ahhah": 3493,
      "hahahhaha": 3494,
      "funni": 3495,
      "pppp": 3496,
      "brother": 3497,
      "five": 3498,
      "runner": 3499,
      "zzzzzzz": 3500,
      "ssion": 3501,
      "follow": 3502,
      "imd": 3503,
      "imba": 3504,
      "imma": 3505,
      "impre": 3506,
      "impossible": 3507,
      "imply": 3508,
      "bum": 3509,
      "sham": 3510,
      "share": 3511,
      "skatin": 3512,
      "sive": 3513,
      "wata": 3514,
      "every1": 3515,
      "everytime": 3516,
      "everywhere": 3517,
      "cmd": 3518,
      "happend": 3519,
      "shell": 3520,
      "eeeeeeeee": 3521,
      "accept": 3522,
      "ador": 3523,
      "ultis": 3524,
      "woulda": 3525,
      "bravo": 3526,
      "exist": 3527,
      "explain": 3528,
      "extend": 3529,
      "igy": 3530,
      "yoshi": 3531,
      "godlike": 3532,
      "^^^": 3533,
      "morning": 3534,
      "pres": 3535,
      "prefe": 3536,
      "prefer": 3537,
      "spamme": 3538,
      "spastic": 3539,
      "meanwhile": 3540,
      "........": 3541,
      "sps": 3542,
      "spic": 3543,
      "speed": 3544,
      "skillz": 3545,
      "hahahahhaha": 3546,
      "cumme": 3547,
      "ttt": 3548,
      "wannabe": 3549,
      "fckng": 3550,
      "2500": 3551,
      "5k4": 3552,
      "smk": 3553,
      "smar": 3554,
      "werk": 3555,
      "tps": 3556,
      "strate": 3557,
      "golden": 3558,
      "cia": 3559,
      "wiht": 3560,
      "mpse": 3561,
      "ited": 3562,
      "boob": 3563,
      "bale": 3564,
      "balanar": 3565,
      "flarex": 3566,
      "ruiner": 3567,
      "mata": 3568,
      "wol": 3569,
      "wodota": 3570,
      "woaw": 3571,
      "keyboard": 3572,
      "offlaner": 3573,
      "trump": 3574,
      "introboy": 3575,
      "bloo": 3576,
      "crazy": 3577,
      "craggy": 3578,
      "quell": 3579,
      "rpot": 3580,
      "zzzzzzzzzzz": 3581,
      "phic": 3582,
      "salt": 3583,
      "haaha": 3584,
      "techis": 3585,
      "triple": 3586,
      "aaaaaaaaaaaaaaaa": 3587,
      "kol": 3588,
      "gusta": 3589,
      "rapido": 3590,
      "bloodseeker": 3591,
      "purge": 3592,
      "clement": 3593,
      "pride": 3594,
      "german": 3595,
      "grace": 3596,
      "trone": 3597,
      "yummy": 3598,
      "venom": 3599,
      "quien": 3600,
      "matchmaking": 3601,
      "greed": 3602,
      "weave": 3603,
      "result": 3604,
      "fvcke": 3605,
      "fuken": 3606,
      "fukce": 3607,
      "aoe": 3608,
      "scary": 3609,
      "shiet": 3610,
      "autism": 3611,
      "jiji": 3612,
      "pfft": 3613,
      "tanga": 3614,
      "heap": 3615,
      "gggggggggggggggggggggggggggggggg": 3616,
      "phet": 3617,
      "photo": 3618,
      "drum": 3619,
      "druid": 3620,
      "penis": 3621,
      "penet": 3622,
      "titan": 3623,
      "tissue": 3624,
      "xaxaxa": 3625,
      "rence": 3626,
      "ruski": 3627,
      "powershot": 3628,
      "360": 3629,
      "horse": 3630,
      "horrible": 3631,
      "lalal": 3632,
      "nnnn": 3633,
      "quickly": 3634,
      "1vs5": 3635,
      "kayo": 3636,
      "thai": 3637,
      "tory": 3638,
      "torna": 3639,
      "hohoho": 3640,
      "ssssssssssss": 3641,
      "fidel": 3642,
      "glimpse": 3643,
      "iuhea": 3644,
      "language": 3645,
      "utututut": 3646,
      "ąąąąąąąą": 3647,
      "clown": 3648,
      "curse": 3649,
      "effort": 3650,
      "effigy": 3651,
      "gratz": 3652,
      "keeper": 3653,
      "keepo": 3654,
      "xddddd": 3655,
      "animal": 3656,
      "entertain": 3657,
      "totally": 3658,
      "terrorblade": 3659,
      "absolutely": 3660,
      "appear": 3661,
      "appreci": 3662,
      "boner": 3663,
      "bonus": 3664,
      "burro": 3665,
      "creap": 3666,
      "immortal": 3667,
      "jerk": 3668,
      "snowball": 3669,
      "alceh": 3670,
      "wowowow": 3671,
      "4vs5": 3672,
      "educate": 3673,
      "h3h3": 3674,
      "slova": 3675,
      "soul": 3676,
      "reatrd": 3677,
      "arcana": 3678,
      "hilarious": 3679,
      "xdddddddddddddddddddddddd": 3680,
      "sense": 3681,
      "patience": 3682,
      "insane": 3683,
      "incoming": 3684,
      "beyond": 3685,
      "fuyck": 3686,
      "alredy": 3687,
      "definite": 3688,
      "diffusal": 3689,
      "pizda": 3690,
      "pogchamp": 3691,
      ":(((": 3692,
      "basically": 3693,
      "regardless": 3694,
      "blind": 3695,
      "calculate": 3696,
      "dorito": 3697,
      "drunk": 3698,
      "hurry": 3699,
      "victory": 3700,
      "wreck": 3701,
      "week": 3702,
      "wombo": 3703,
      "pathetic": 3704,
      "recomi": 3705,
      "mexican": 3706,
      "ravage": 3707,
      "dumbass": 3708,
      "daedalus": 3709,
      "naughty": 3710,
      "dotacinema": 3711,
      "continue": 3712,
      "bivaet": 3713,
      "impressive": 3714,
      "appreciate": 3715,
      "!#!@#!@": 3716,
      "#!#!@#!@": 3717,
      "/¯": 3718,
      "1x": 3719,
      "110": 3720,
      "1by": 3721,
      "120": 3722,
      "1v5": 3723,
      "1v4": 3724,
      "1hr": 3725,
      "2v": 3726,
      "2v1": 3727,
      "31": 3728,
      "32": 3729,
      "3v": 3730,
      "3w": 3731,
      "3v1": 3732,
      "3mins": 3733,
      "41": 3734,
      "42": 3735,
      "46": 3736,
      "4e": 3737,
      "4n": 3738,
      "4x": 3739,
      "4min": 3740,
      "4v1": 3741,
      "53": 3742,
      "56": 3743,
      "57": 3744,
      "58": 3745,
      "5v": 3746,
      "5x": 3747,
      "5min": 3748,
      "5man": 3749,
      "515": 3750,
      "5v5": 3751,
      "5200": 3752,
      "5v4": 3753,
      "5mins": 3754,
      "61": 3755,
      "71": 3756,
      "75": 3757,
      "727": 3758,
      "89": 3759,
      "8min": 3760,
      ":|": 3761,
      ":-)": 3762,
      "=[": 3763,
      "@#!@#!@": 3764,
      "_g": 3765,
      "ase": 3766,
      "ain": 3767,
      "ack": 3768,
      "ash": 3769,
      "adi": 3770,
      "amm": 3771,
      "abo": 3772,
      "ajo": 3773,
      "ahi": 3774,
      "ami": 3775,
      "acount": 3776,
      "along": 3777,
      "agre": 3778,
      "akb": 3779,
      "awhile": 3780,
      "ako": 3781,
      "ajajaj": 3782,
      "amen": 3783,
      "aware": 3784,
      "bn": 3785,
      "bp": 3786,
      "bv": 3787,
      "bst": 3788,
      "bone": 3789,
      "boooo": 3790,
      "bfk": 3791,
      "bree": 3792,
      "blu": 3793,
      "bcause": 3794,
      "brat": 3795,
      "bine": 3796,
      "bfury": 3797,
      "cr": 3798,
      "cro": 3799,
      "cis": 3800,
      "cto": 3801,
      "cand": 3802,
      "cul": 3803,
      "crow": 3804,
      "cion": 3805,
      "cpt": 3806,
      "cfg": 3807,
      "dl": 3808,
      "dm": 3809,
      "dno": 3810,
      "dit": 3811,
      "doo": 3812,
      "dur": 3813,
      "dzz": 3814,
      "daaaa": 3815,
      "dene": 3816,
      "didn": 3817,
      "dress": 3818,
      "eb": 3819,
      "ec": 3820,
      "ek": 3821,
      "ev": 3822,
      "ein": 3823,
      "eme": 3824,
      "eck": 3825,
      "eport": 3826,
      "ewe": 3827,
      "eba": 3828,
      "ess": 3829,
      "eter": 3830,
      "esta": 3831,
      "elad": 3832,
      "emer": 3833,
      "edad": 3834,
      "evas": 3835,
      "ejeje": 3836,
      "fc": 3837,
      "fit": 3838,
      "fru": 3839,
      "freak": 3840,
      "fhm": 3841,
      "fps": 3842,
      "gs": 3843,
      "gx": 3844,
      "gha": 3845,
      "gor": 3846,
      "gwp": 3847,
      "gba": 3848,
      "gun": 3849,
      "gus": 3850,
      "gent": 3851,
      "g_g": 3852,
      "hw": 3853,
      "hy": 3854,
      "hoo": 3855,
      "hon": 3856,
      "hid": 3857,
      "hill": 3858,
      "huy": 3859,
      "hus": 3860,
      "hunt": 3861,
      "hhahahah": 3862,
      "htt": 3863,
      "hmmmm": 3864,
      "hhaa": 3865,
      "iv": 3866,
      "ial": 3867,
      "ihave": 3868,
      "iver": 3869,
      "iot": 3870,
      "ially": 3871,
      "iam": 3872,
      "imag": 3873,
      "idot": 3874,
      "imap": 3875,
      "jm": 3876,
      "js": 3877,
      "jz": 3878,
      "jan": 3879,
      "jou": 3880,
      "jen": 3881,
      "jke": 3882,
      "jsa": 3883,
      "jgu": 3884,
      "kc": 3885,
      "kj": 3886,
      "kha": 3887,
      "kre": 3888,
      "kal": 3889,
      "kli": 3890,
      "kld": 3891,
      "kil": 3892,
      "kunt": 3893,
      "ksd": 3894,
      "knight": 3895,
      "kasi": 3896,
      "kiss": 3897,
      "lh": 3898,
      "len": 3899,
      "lso": 3900,
      "lish": 3901,
      "mf": 3902,
      "mto": 3903,
      "mort": 3904,
      "mill": 3905,
      "mut": 3906,
      "moooo": 3907,
      "mil": 3908,
      "mnt": 3909,
      "mjo": 3910,
      "mby": 3911,
      "mrr": 3912,
      "n1": 3913,
      "nb": 3914,
      "nw": 3915,
      "nin": 3916,
      "nbe": 3917,
      "nen": 3918,
      "nid": 3919,
      "naa": 3920,
      "nir": 3921,
      "nkow": 3922,
      "ose": 3923,
      "ono": 3924,
      "ore": 3925,
      "ove": 3926,
      "owe": 3927,
      "ola": 3928,
      "oly": 3929,
      "ogh": 3930,
      "oshi": 3931,
      "p0": 3932,
      "phat": 3933,
      "psh": 3934,
      "pic": 3935,
      "puse": 3936,
      "pop": 3937,
      "pper": 3938,
      "pene": 3939,
      "plox": 3940,
      "qa": 3941,
      "qo": 3942,
      "qwe": 3943,
      "rf": 3944,
      "roo": 3945,
      "ray": 3946,
      "ric": 3947,
      "root": 3948,
      "rider": 3949,
      "sg": 3950,
      "sn": 3951,
      "sz": 3952,
      "sort": 3953,
      "sport": 3954,
      "sga": 3955,
      "sli": 3956,
      "sch": 3957,
      "soooo": 3958,
      "swan": 3959,
      "sbad": 3960,
      "ska": 3961,
      "sword": 3962,
      "sider": 3963,
      "tc": 3964,
      "tj": 3965,
      "tl": 3966,
      "tee": 3967,
      "tsu": 3968,
      "tur": 3969,
      "twr": 3970,
      "trow": 3971,
      "tks": 3972,
      "tread": 3973,
      "tutututut": 3974,
      "uc": 3975,
      "uan": 3976,
      "uck": 3977,
      "ust": 3978,
      "uer": 3979,
      "ual": 3980,
      "ury": 3981,
      "ude": 3982,
      "uard": 3983,
      "uld": 3984,
      "uine": 3985,
      "uhhh": 3986,
      "vse": 3987,
      "vant": 3988,
      "vang": 3989,
      "vag": 3990,
      "vote": 3991,
      "wll": 3992,
      "wth": 3993,
      "wwe": 3994,
      "wand": 3995,
      "wate": 3996,
      "wjo": 3997,
      "woh": 3998,
      "wrekt": 3999,
      "warded": 4000,
      "wound": 4001,
      "wtr": 4002,
      "wud": 4003,
      "woooooooooooo": 4004,
      "w33": 4005,
      "whant": 4006,
      "w3w": 4007,
      "xi": 4008,
      "xp": 4009,
      "xaa": 4010,
      "xdddddddd": 4011,
      "xuan": 4012,
      "yf": 4013,
      "yn": 4014,
      "yt": 4015,
      "yje": 4016,
      "yalll": 4017,
      "zen": 4018,
      "zel": 4019,
      "¬¬": 4020,
      "¯\\": 4021,
      "ñol": 4022,
      "órt": 4023,
      "ıs": 4024,
      "̇d": 4025,
      "ａｋ": 4026,
      "ｄｘ": 4027,
      "ｍａｏ": 4028,
      "seg": 4029,
      "sek": 4030,
      "sem": 4031,
      "sever": 4032,
      "pad": 4033,
      "pal": 4034,
      "pan": 4035,
      "past": 4036,
      "pair": 4037,
      "pate": 4038,
      "pang": 4039,
      "pasi": 4040,
      "paint": 4041,
      "palm": 4042,
      "pasue": 4043,
      "pagar": 4044,
      "pauz": 4045,
      "passion": 4046,
      "hal": 4047,
      "hao": 4048,
      "hash": 4049,
      "hail": 4050,
      "haste": 4051,
      "haiz": 4052,
      "haahah": 4053,
      "ggf": 4054,
      "ggo": 4055,
      "ggez": 4056,
      "hei": 4057,
      "heck": 4058,
      "heree": 4059,
      "heng": 4060,
      "heter": 4061,
      "nowa": 4062,
      "nothin": 4063,
      "noiw": 4064,
      "noisy": 4065,
      "rel": 4066,
      "reta": 4067,
      "rect": 4068,
      "repo": 4069,
      "remind": 4070,
      "remain": 4071,
      "relic": 4072,
      "resist": 4073,
      "reddit": 4074,
      "rerpot": 4075,
      "iny": 4076,
      "indo": 4077,
      "inve": 4078,
      "infin": 4079,
      "insta": 4080,
      "increa": 4081,
      "infidel": 4082,
      "anno": 4083,
      "ando": 4084,
      "lopl": 4085,
      "lout": 4086,
      "lover": 4087,
      "looooooooo": 4088,
      "lolll": 4089,
      "bek": 4090,
      "bel": 4091,
      "bes": 4092,
      "become": 4093,
      "belive": 4094,
      "benn": 4095,
      "beef": 4096,
      "mei": 4097,
      "mes": 4098,
      "met": 4099,
      "mera": 4100,
      "meka": 4101,
      "meeee": 4102,
      "ora": 4103,
      "oray": 4104,
      "orge": 4105,
      "oup": 4106,
      "outa": 4107,
      "ckck": 4108,
      "hahahahahah": 4109,
      "sth": 4110,
      "sti": 4111,
      "sting": 4112,
      "stood": 4113,
      "stem": 4114,
      "stab": 4115,
      "stud": 4116,
      "stable": 4117,
      "stress": 4118,
      "lla": 4119,
      "llama": 4120,
      "era": 4121,
      "erz": 4122,
      "eral": 4123,
      "eack": 4124,
      "eaea": 4125,
      "eari": 4126,
      "easi": 4127,
      "eaiuhea": 4128,
      "ooon": 4129,
      "ooom": 4130,
      "oooh": 4131,
      "youi": 4132,
      "youy": 4133,
      "youknow": 4134,
      "young": 4135,
      "youtube": 4136,
      "doh": 4137,
      "dom": 4138,
      "doge": 4139,
      "doct": 4140,
      "dong": 4141,
      "dotn": 4142,
      "lolx": 4143,
      "ara": 4144,
      "ary": 4145,
      "arse": 4146,
      "arro": 4147,
      "armor": 4148,
      "fue": 4149,
      "fuick": 4150,
      "fucj": 4151,
      "plen": 4152,
      "plat": 4153,
      "ezez": 4154,
      "ezgame": 4155,
      "ezmid": 4156,
      "ezzzz": 4157,
      "ezys": 4158,
      "ezzzzzz": 4159,
      "ezpz": 4160,
      "oneee": 4161,
      "thj": 4162,
      "tht": 4163,
      "thz": 4164,
      "thur": 4165,
      "thir": 4166,
      "thus": 4167,
      "thous": 4168,
      "thist": 4169,
      "thign": 4170,
      "note": 4171,
      "noty": 4172,
      "notice": 4173,
      "ena": 4174,
      "eni": 4175,
      "enst": 4176,
      "enen": 4177,
      "ennd": 4178,
      "roe": 4179,
      "rome": 4180,
      "role": 4181,
      "robot": 4182,
      "isp": 4183,
      "ida": 4184,
      "idan": 4185,
      "idal": 4186,
      "idga": 4187,
      "ayu": 4188,
      "tob": 4189,
      "tok": 4190,
      "todo": 4191,
      "tolol": 4192,
      "toge": 4193,
      "tocar": 4194,
      "totem": 4195,
      "fucka": 4196,
      "fuckyou": 4197,
      "fuckng": 4198,
      "fuckik": 4199,
      "fucknig": 4200,
      "algo": 4201,
      "alne": 4202,
      "ales": 4203,
      "aleg": 4204,
      "alwy": 4205,
      "alrdy": 4206,
      "geg": 4207,
      "porte": 4208,
      "gae": 4209,
      "gam": 4210,
      "gain": 4211,
      "gaben": 4212,
      "gative": 4213,
      "eeer": 4214,
      "shsh": 4215,
      "shup": 4216,
      "shout": 4217,
      "shie": 4218,
      "shud": 4219,
      "cok": 4220,
      "cost": 4221,
      "coward": 4222,
      "coast": 4223,
      "copy": 4224,
      "cotl": 4225,
      "lem": 4226,
      "ley": 4227,
      "lele": 4228,
      "wep": 4229,
      "wet": 4230,
      "wex": 4231,
      "were": 4232,
      "weooh": 4233,
      "atar": 4234,
      "atay": 4235,
      "atlast": 4236,
      "sod": 4237,
      "sodi": 4238,
      "bath": 4239,
      "bagay": 4240,
      "bathr": 4241,
      "ics": 4242,
      "icle": 4243,
      "ichi": 4244,
      "icult": 4245,
      "icii": 4246,
      "obv": 4247,
      "gol": 4248,
      "godd": 4249,
      "rac": 4250,
      "rase": 4251,
      "rath": 4252,
      "ramp": 4253,
      "ryt": 4254,
      "ryan": 4255,
      "allah": 4256,
      "form": 4257,
      "forgot": 4258,
      "lia": 4259,
      "lian": 4260,
      "lier": 4261,
      "light": 4262,
      "lift": 4263,
      "lixo": 4264,
      "lipino": 4265,
      "juas": 4266,
      "jummy": 4267,
      "sux": 4268,
      "sugar": 4269,
      "susto": 4270,
      "sudden": 4271,
      "lamo": 4272,
      "lagi": 4273,
      "laggg": 4274,
      "laggs": 4275,
      "chri": 4276,
      "chur": 4277,
      "chop": 4278,
      "chink": 4279,
      "maen": 4280,
      "made": 4281,
      "mada": 4282,
      "maby": 4283,
      "maste": 4284,
      "maiden": 4285,
      "midle": 4286,
      "ingle": 4287,
      "ending": 4288,
      "homo": 4289,
      "cance": 4290,
      "mys": 4291,
      "ok2": 4292,
      "oki": 4293,
      "okk": 4294,
      "okr": 4295,
      "tyy": 4296,
      "deg": 4297,
      "dem": 4298,
      "deez": 4299,
      "dela": 4300,
      "demor": 4301,
      "demon": 4302,
      "demage": 4303,
      "descri": 4304,
      "delte": 4305,
      "depend": 4306,
      "wah": 4307,
      "waw": 4308,
      "wash": 4309,
      "wahah": 4310,
      "tac": 4311,
      "tae": 4312,
      "tah": 4313,
      "tap": 4314,
      "table": 4315,
      "tasty": 4316,
      "ung": 4317,
      "unp": 4318,
      "undi": 4319,
      "unlucky": 4320,
      "unskill": 4321,
      "unity": 4322,
      "unfair": 4323,
      "univer": 4324,
      "riv": 4325,
      "riky": 4326,
      "utaly": 4327,
      "mofo": 4328,
      "movie": 4329,
      "ti6": 4330,
      "tik": 4331,
      "tiz": 4332,
      "tist": 4333,
      "tight": 4334,
      "tiene": 4335,
      "tiger": 4336,
      "tienen": 4337,
      "comin": 4338,
      "commin": 4339,
      "combine": 4340,
      "nder": 4341,
      "shitt": 4342,
      "shitter": 4343,
      "shittie": 4344,
      "niceu": 4345,
      "nicely": 4346,
      "saf": 4347,
      "sai": 4348,
      "sap": 4349,
      "saw": 4350,
      "saba": 4351,
      "sadd": 4352,
      "samba": 4353,
      "fack": 4354,
      "fach": 4355,
      "faith": 4356,
      "difu": 4357,
      "diver": 4358,
      "diam": 4359,
      "diza": 4360,
      "playa": 4361,
      "lyfe": 4362,
      "white": 4363,
      "minimap": 4364,
      "waite": 4365,
      "pul": 4366,
      "puta": 4367,
      "pusher": 4368,
      "puede": 4369,
      "ned": 4370,
      "nel": 4371,
      "nex": 4372,
      "negative": 4373,
      "aaxax": 4374,
      "ghty": 4375,
      "ghsd": 4376,
      "pika": 4377,
      "pizza": 4378,
      "yey": 4379,
      "yeha": 4380,
      "yeye": 4381,
      "yeezys": 4382,
      "sfd": 4383,
      "sfs": 4384,
      "sfer": 4385,
      "likely": 4386,
      "rusk": 4387,
      "ruine": 4388,
      "rustard": 4389,
      "duo": 4390,
      "duall": 4391,
      "duuu": 4392,
      "duza": 4393,
      "duasd": 4394,
      "duken": 4395,
      "open": 4396,
      "oppen": 4397,
      "oppos": 4398,
      "irt": 4399,
      "iron": 4400,
      "irite": 4401,
      "irmat": 4402,
      "irony": 4403,
      "das": 4404,
      "damm": 4405,
      "dauno": 4406,
      "nao": 4407,
      "naut": 4408,
      "naman": 4409,
      "nahhhh": 4410,
      "nazi": 4411,
      "namaste": 4412,
      "prophet": 4413,
      "yeaaaah": 4414,
      "ooooo": 4415,
      "caryy": 4416,
      "upgra": 4417,
      "update": 4418,
      "cele": 4419,
      "ceba": 4420,
      "usle": 4421,
      "usly": 4422,
      "iland": 4423,
      "persion": 4424,
      "asco": 4425,
      "japan": 4426,
      "james": 4427,
      "pleae": 4428,
      "return": 4429,
      "bog": 4430,
      "boid": 4431,
      "boat": 4432,
      "bogo": 4433,
      "bored": 4434,
      "sayang": 4435,
      "slaty": 4436,
      "ctric": 4437,
      "pickin": 4438,
      "emd": 4439,
      "butt": 4440,
      "cac": 4441,
      "cano": 4442,
      "caga": 4443,
      "gif": 4444,
      "giff": 4445,
      "gigil": 4446,
      "poser": 4447,
      "polit": 4448,
      "trah": 4449,
      "tramp": 4450,
      "niyo": 4451,
      "ulul": 4452,
      "fkc": 4453,
      "fkng": 4454,
      "kau": 4455,
      "kapa": 4456,
      "couri": 4457,
      "invko": 4458,
      "tel": 4459,
      "tele": 4460,
      "text": 4461,
      "ife": 4462,
      "ify": 4463,
      "omggg": 4464,
      "omusor": 4465,
      "chest": 4466,
      "hhq": 4467,
      "paused": 4468,
      "lead": 4469,
      "lear": 4470,
      "leat": 4471,
      "lease": 4472,
      "hardlane": 4473,
      "outpick": 4474,
      "hahahahaa": 4475,
      "hahahahahahaha": 4476,
      "hahahahahahahaha": 4477,
      "hahahahahahah": 4478,
      "hahahahahahahahaha": 4479,
      "suppp": 4480,
      "farmed": 4481,
      "ately": 4482,
      "sadfac": 4483,
      "talke": 4484,
      "worst": 4485,
      "wowk": 4486,
      "wowo": 4487,
      "woww": 4488,
      "reaper": 4489,
      "abt": 4490,
      "abit": 4491,
      "abban": 4492,
      "fel": 4493,
      "ferent": 4494,
      "fegget": 4495,
      "sydne": 4496,
      "system": 4497,
      "sylla": 4498,
      "whoever": 4499,
      "talker": 4500,
      "talktalk": 4501,
      "joga": 4502,
      "102": 4503,
      "10min": 4504,
      "dotabuff": 4505,
      "musa": 4506,
      "bitc": 4507,
      "hio": 4508,
      "yak": 4509,
      "yap": 4510,
      "yahaha": 4511,
      "yawa": 4512,
      "defeat": 4513,
      "trashtalk": 4514,
      "trashlord": 4515,
      "any1": 4516,
      "viro": 4517,
      "vive": 4518,
      "cont": 4519,
      "congrat": 4520,
      "confuse": 4521,
      "consider": 4522,
      "thankyou": 4523,
      "mi̇d": 4524,
      "mighty": 4525,
      "hahhahah": 4526,
      "hahhahha": 4527,
      "kia": 4528,
      "bia": 4529,
      "bi̇": 4530,
      "biasa": 4531,
      "biomusor": 4532,
      "cure": 4533,
      "cuss": 4534,
      "curi": 4535,
      "culd": 4536,
      "cugu": 4537,
      "botbot": 4538,
      "ahhahaha": 4539,
      "ahhahahaha": 4540,
      "ahhahaa": 4541,
      "ahhahahaa": 4542,
      "ahora": 4543,
      "sorr": 4544,
      "sory": 4545,
      "hahahhahaa": 4546,
      "awj": 4547,
      "awal": 4548,
      "ggggggg": 4549,
      "funy": 4550,
      "ppd": 4551,
      "pping": 4552,
      "wards": 4553,
      "stopd": 4554,
      "stopher": 4555,
      "bros": 4556,
      "quil": 4557,
      "000": 4558,
      "fiend": 4559,
      "figu": 4560,
      "fihgt": 4561,
      "filipino": 4562,
      "helple": 4563,
      "agad": 4564,
      "rant": 4565,
      "surely": 4566,
      "bbs": 4567,
      "alchie": 4568,
      "improve": 4569,
      "buck": 4570,
      "buhat": 4571,
      "shas": 4572,
      "shack": 4573,
      "shall": 4574,
      "shape": 4575,
      "shaman": 4576,
      "skali": 4577,
      "offer": 4578,
      "offalne": 4579,
      "sign": 4580,
      "tinekr": 4581,
      "lovely": 4582,
      "blat": 4583,
      "earn": 4584,
      "silent": 4585,
      "silenci": 4586,
      "bleme": 4587,
      "lifesteal": 4588,
      "etc": 4589,
      "freewin": 4590,
      "freefarm": 4591,
      "action": 4592,
      "acutaly": 4593,
      "adn": 4594,
      "admit": 4595,
      "donde": 4596,
      "donkey": 4597,
      "donald": 4598,
      "peruca": 4599,
      "iii": 4600,
      "crystal": 4601,
      "nyu": 4602,
      "friendshi": 4603,
      "luckyman": 4604,
      "brai": 4605,
      "brave": 4606,
      "worthit": 4607,
      "worthless": 4608,
      "4k6": 4609,
      "4ks": 4610,
      "exce": 4611,
      "exam": 4612,
      "expen": 4613,
      "igra": 4614,
      "igrat": 4615,
      "mbar": 4616,
      "rating": 4617,
      "moral": 4618,
      "mormo": 4619,
      "careful": 4620,
      "predick": 4621,
      "premute": 4622,
      "present": 4623,
      "spanish": 4624,
      "assault": 4625,
      "zeu": 4626,
      "step": 4627,
      "stere": 4628,
      "pleea": 4629,
      "miran": 4630,
      "spy": 4631,
      "spit": 4632,
      "spider": 4633,
      "speack": 4634,
      "motherless": 4635,
      "hahahahha": 4636,
      "hahahahhahaha": 4637,
      "thrower": 4638,
      "staff": 4639,
      "nevermore": 4640,
      "nevermind": 4641,
      "cummin": 4642,
      "cumbag": 4643,
      "cumbak": 4644,
      "ahahaa": 4645,
      "ahahahahaha": 4646,
      "antly": 4647,
      "shutup": 4648,
      "tusker": 4649,
      "brra": 4650,
      "fckin": 4651,
      "fcker": 4652,
      "fcken": 4653,
      "feeed": 4654,
      "odnt": 4655,
      "25mmr": 4656,
      "2kmmr": 4657,
      "meepwn": 4658,
      "disra": 4659,
      "disgu": 4660,
      "disast": 4661,
      "disconect": 4662,
      "disgrace": 4663,
      "dispersion": 4664,
      "discuss": 4665,
      "coulda": 4666,
      "feelsbad": 4667,
      "serve": 4668,
      "small": 4669,
      "stunning": 4670,
      "jej": 4671,
      "ptm": 4672,
      "ptsd": 4673,
      "ptmr": 4674,
      "unpauser": 4675,
      "cik": 4676,
      "champi": 4677,
      "wild": 4678,
      "dedz": 4679,
      "mpics": 4680,
      "selfish": 4681,
      "30min": 4682,
      "flaw": 4683,
      "flash": 4684,
      "1500": 4685,
      "husker": 4686,
      "iza": 4687,
      "legio": 4688,
      "gys": 4689,
      "gyus": 4690,
      "juger": 4691,
      "jugar": 4692,
      "axaxax": 4693,
      "axaxaxa": 4694,
      "putang": 4695,
      "woa": 4696,
      "wodden": 4697,
      "scur": 4698,
      "scool": 4699,
      "scream": 4700,
      "headshot": 4701,
      "lineup": 4702,
      "spectr": 4703,
      "ganking": 4704,
      "mental": 4705,
      "mentally": 4706,
      "mentality": 4707,
      "kappapride": 4708,
      "ahahhah": 4709,
      "bobob": 4710,
      "fairly": 4711,
      "newb": 4712,
      "newbie": 4713,
      "aganim": 4714,
      "trolling": 4715,
      "herself": 4716,
      "yyyyyyy": 4717,
      "134": 4718,
      "cragg": 4719,
      "rps": 4720,
      "merry": 4721,
      "sssss": 4722,
      "zzzzzzzzzz": 4723,
      "brainless": 4724,
      "human": 4725,
      "hopeless": 4726,
      "unapuse": 4727,
      "droom": 4728,
      "50min": 4729,
      "ahahahahahahaha": 4730,
      "client": 4731,
      "trihard": 4732,
      "babysat": 4733,
      "aaaaaaaaaaa": 4734,
      "eeeeeeeeeeeeeeeeeeeeeeeeeeee": 4735,
      "batya": 4736,
      "batrider": 4737,
      "clap": 4738,
      "claim": 4739,
      "fresh": 4740,
      "freind": 4741,
      "french": 4742,
      "kola": 4743,
      "kotol": 4744,
      "lotus": 4745,
      "lothar": 4746,
      "windranger": 4747,
      "creater": 4748,
      "creator": 4749,
      "credit": 4750,
      "gud": 4751,
      "guard": 4752,
      "cocky": 4753,
      "cockwork": 4754,
      "critical": 4755,
      "holyshit": 4756,
      "pointless": 4757,
      "accident": 4758,
      "5500": 4759,
      "blyat": 4760,
      "laner": 4761,
      "lancer": 4762,
      "lanji": 4763,
      "prt": 4764,
      "price": 4765,
      "vpn": 4766,
      "healer": 4767,
      "healing": 4768,
      "oooooooooooooooooo": 4769,
      "dddddddddddddddddddddddddddddddd": 4770,
      "dddddddddddddddddddddddddddd": 4771,
      "1600": 4772,
      "denie": 4773,
      "gracia": 4774,
      "graphic": 4775,
      "trsah": 4776,
      "yum": 4777,
      "yuo": 4778,
      "zaebal": 4779,
      "quiero": 4780,
      "matchup": 4781,
      "greek": 4782,
      "greeve": 4783,
      "choise": 4784,
      "nyxny": 4785,
      "247": 4786,
      "ahahahhaa": 4787,
      "century": 4788,
      "gona": 4789,
      "minglee": 4790,
      "rtz": 4791,
      "weather": 4792,
      "facebook": 4793,
      "facepalm": 4794,
      "blackout": 4795,
      "catcher": 4796,
      "fvb": 4797,
      "fvck": 4798,
      "woow": 4799,
      "warum": 4800,
      "hayhay": 4801,
      "direct": 4802,
      "bodyguard": 4803,
      "jajajajaj": 4804,
      "jajajajaja": 4805,
      "kkkkkkkkk": 4806,
      "kingina": 4807,
      "private": 4808,
      "internal": 4809,
      "lllllllll": 4810,
      "obviously": 4811,
      "180": 4812,
      "dps": 4813,
      "douche": 4814,
      "walrus": 4815,
      "sexual": 4816,
      "spelling": 4817,
      "wkwkwk": 4818,
      "2000": 4819,
      "bruto": 4820,
      "bruhh": 4821,
      "kontool": 4822,
      "repot": 4823,
      "repórt": 4824,
      "memememe": 4825,
      "suporte": 4826,
      "10000": 4827,
      "jojojojoj": 4828,
      "jojojojojo": 4829,
      "jojojojojojo": 4830,
      "274": 4831,
      "jizz": 4832,
      "kyxy": 4833,
      "peenoy": 4834,
      "treat": 4835,
      "wlwl": 4836,
      "looy": 4837,
      "looser": 4838,
      "strom": 4839,
      "homeboy": 4840,
      "tactic": 4841,
      "difficult": 4842,
      "voltis": 4843,
      "40min": 4844,
      "drag": 4845,
      "dragon": 4846,
      "draft": 4847,
      "phew": 4848,
      "smash": 4849,
      "sease": 4850,
      "maphack": 4851,
      "timbersaw": 4852,
      "commit": 4853,
      "nightmare": 4854,
      "kakakaka": 4855,
      "cccc": 4856,
      "genuine": 4857,
      "muere": 4858,
      "singse": 4859,
      "title": 4860,
      "yaya": 4861,
      "hacker": 4862,
      "armour": 4863,
      "maini": 4864,
      "decay": 4865,
      "commene": 4866,
      "course": 4867,
      "glglgl": 4868,
      "jajajajaa": 4869,
      "jajajajja": 4870,
      "hhhhhhhhhhhhhhhh": 4871,
      "mmmmmmmmmmmm": 4872,
      "mmmmmmmmmmmmmmmm": 4873,
      "powerball": 4874,
      "powerfull": 4875,
      "ahaah": 4876,
      "horn": 4877,
      "lloron": 4878,
      "piso": 4879,
      "hehhe": 4880,
      "gagaga": 4881,
      "pudga": 4882,
      "dazl": 4883,
      "dauni": 4884,
      "asdg": 4885,
      "wwwwww": 4886,
      "intencion": 4887,
      "morphling": 4888,
      "mongol": 4889,
      "wonderland": 4890,
      "surprised": 4891,
      "1vs1": 4892,
      "1vs9": 4893,
      "9999": 4894,
      "kaya": 4895,
      "mlk": 4896,
      "thailand": 4897,
      "poshel": 4898,
      "excited": 4899,
      "ignorant": 4900,
      "yoyoy": 4901,
      "screw": 4902,
      "rapiraa": 4903,
      "glimmer": 4904,
      "mario": 4905,
      "nutz": 4906,
      "instant": 4907,
      "beastmaster": 4908,
      "menya": 4909,
      "mention": 4910,
      "totaly": 4911,
      "cheese": 4912,
      "ddddddddddddd": 4913,
      "brewmaster": 4914,
      "bmw": 4915,
      "busy": 4916,
      "currier": 4917,
      "heuheu": 4918,
      "refresh": 4919,
      "shoppin": 4920,
      "spammer": 4921,
      "uuuuuuuuuuuuuuuu": 4922,
      "eeeeeeeeeeeeeeeeeeeeeeeeeeeeeeeeeeeeeeeeeeeeeeeeeeeeeeeeeeeeeeee": 4923,
      "aiyo": 4924,
      "burden": 4925,
      "corpse": 4926,
      "cutie": 4927,
      "ddos": 4928,
      "deek": 4929,
      "jaaj": 4930,
      "sdasd": 4931,
      "transfer": 4932,
      "stalker": 4933,
      "---": 4934,
      "avicii": 4935,
      "affirmat": 4936,
      "america": 4937,
      "american": 4938,
      "blowjob": 4939,
      "ebanie": 4940,
      "fortify": 4941,
      "idol": 4942,
      "octarine": 4943,
      "pinke": 4944,
      "haaaaaaaaaaa": 4945,
      "recipe": 4946,
      "arcane": 4947,
      "rotation": 4948,
      "lapsap": 4949,
      "middle": 4950,
      "naked": 4951,
      "bomji": 4952,
      "blablabla": 4953,
      "grandpa": 4954,
      "grandmother": 4955,
      "tttttttttttttttt": 4956,
      ">>>>>>>>": 4957,
      "xaxaxaxaxaxa": 4958,
      "spoiler": 4959,
      "1v2": 4960,
      "9000": 4961,
      "clearly": 4962,
      "electric": 4963,
      "false": 4964,
      "fallout": 4965,
      "filho": 4966,
      "filthy": 4967,
      "hgahahaha": 4968,
      "mobile": 4969,
      "usage": 4970,
      "yung": 4971,
      "palye": 4972,
      "anime": 4973,
      "somali": 4974,
      "illumin": 4975,
      "dumpstere": 4976,
      "naxyu": 4977,
      "butterfly": 4978,
      "himself": 4979,
      "europe": 4980,
      "malaysia": 4981,
      "aggressive": 4982,
      "2h2": 4983,
      "afaik": 4984,
      "adada": 4985,
      "ajajja": 4986,
      "breaker": 4987,
      "birthday": 4988,
      "cvk": 4989,
      "gryo": 4990,
      "hjaha": 4991,
      "i̇n": 4992,
      "jarva": 4993,
      "lmoa": 4994,
      "scope": 4995,
      "xaoxao": 4996,
      "zombie": 4997,
      "ｓｉｓｉ": 4998,
      "sereuse": 4999,
      "pakyu": 5000,
      "noodle": 5001,
      "noooooooooooooooooooooooo": 5002,
      "initi": 5003,
      "insult": 5004,
      "loooooooooooooooool": 5005,
      "dollar": 5006,
      "fucekr": 5007,
      "planting": 5008,
      "engage": 5009,
      "complete": 5010,
      "sacrif": 5011,
      "family": 5012,
      "uselss": 5013,
      "public": 5014,
      "russki": 5015,
      "position": 5016,
      "tryharde": 5017,
      "defense": 5018,
      "contribution": 5019,
      "confident": 5020,
      "watafak": 5021,
      "prefere": 5022,
      "strated": 5023,
      "bloody": 5024,
      "penetrate": 5025,
      "lalalala": 5026,
      "tornado": 5027,
      "alcehmist": 5028,
      "wowowowow": 5029,
      "slovakia": 5030,
      "xddddddddddddddddddddddddd": 5031,
      "definitely": 5032,
      "recomiend": 5033,
      "1x1": 5034,
      "5v3": 5035,
      "above": 5036,
      "akbar": 5037,
      "breed": 5038,
      "candy": 5039,
      "culpa": 5040,
      "during": 5041,
      "dzzle": 5042,
      "deness": 5043,
      "einfach": 5044,
      "emebr": 5045,
      "evasion": 5046,
      "ejejejej": 5047,
      "frustrated": 5048,
      "gunna": 5049,
      "imagine": 5050,
      "million": 5051,
      "ninja": 5052,
      "olympics": 5053,
      "phaton": 5054,
      "slip": 5055,
      "skadi": 5056,
      "vanguard": 5057,
      "vagina": 5058,
      "several": 5059,
      "pauzka": 5060,
      "hetero": 5061,
      "nowaday": 5062,
      "inveokr": 5063,
      "increase": 5064,
      "loooooooool": 5065,
      "meracle": 5066,
      "orayt": 5067,
      "doctor": 5068,
      "arrowe": 5069,
      "plenty": 5070,
      "thursday": 5071,
      "thousand": 5072,
      "idgaf": 5073,
      "alesso": 5074,
      "alwys": 5075,
      "shield": 5076,
      "sodium": 5077,
      "bathroom": 5078,
      "suddenly": 5079,
      "christopher": 5080,
      "church": 5081,
      "madafaka": 5082,
      "cancel": 5083,
      "describe": 5084,
      "undiy": 5085,
      "universe": 5086,
      "dizaz": 5087,
      "duuude": 5088,
      "opposite": 5089,
      "daunov": 5090,
      "upgrade": 5091,
      "polite": 5092,
      "invkoer": 5093,
      "sadfaceari": 5094,
      "abbandon": 5095,
      "sydney": 5096,
      "figure": 5097,
      "helpless": 5098,
      "silencio": 5099,
      "friendship": 5100,
      "disgusting": 5101,
      "disastah": 5102,
      "feelsbadman": 5103,
      "champion": 5104,
      "lanjiao": 5105,
      "ddddddddddddddddddddddddddddddd": 5106,
      "genuinely": 5107,
      "intencional": 5108,
      "affirmative": 5109
    },
    "merges": [
      [
        "s",
        "e"
      ],
      [
        "p",
        "a"
      ],
      [
        "se",
        "pa"
      ],
      [
        "h",
        "a"
      ],
      [
        "g",
        "g"
      ],
      [
        "h",
        "e"
      ],
      [
        "n",
        "o"
      ],
      [
        "r",
        "e"
      ],
      [
        "i",
        "n"
      ],
      [
        "a",
        "n"
      ],
      [
        "l",
        "o"
      ],
      [
        "b",
        "e"
      ],
      [
        "m",
        "e"
      ],
      [
        "o",
        "r"
      ],
      [
        "i",
        "t"
      ],
      [
        "o",
        "u"
      ],
      [
        "c",
        "k"
      ],
      [
        "ha",
        "ha"
      ],
      [
        "s",
        "t"
      ],
      [
        "l",
        "l"
      ],
      [
        "e",
        "r"
      ],
      [
        "e",
        "a"
      ],
      [
        "o",
        "o"
      ],
      [
        "y",
        "ou"
      ],
      [
        "d",
        "o"
      ],
      [
        "lo",
        "l"
      ],
      [
        "a",
        "r"
      ],
      [
        "f",
        "u"
      ],
      [
        "p",
        "l"
      ],
      [
        "e",
        "z"
      ],
      [
        "o",
        "n"
      ],
      [
        "t",
        "h"
      ],
      [
        "t",
        "he"
      ],
      [
        "no",
        "t"
      ],
      [
        "w",
        "p"
      ],
      [
        "e",
        "n"
      ],
      [
        "r",
        "o"
      ],
      [
        "i",
        "s"
      ],
      [
        "i",
        "d"
      ],
      [
        "a",
        "y"
      ],
      [
        "t",
        "o"
      ],
      [
        "fu",
        "ck"
      ],
      [
        "a",
        "l"
      ],
      [
        "or",
        "t"
      ],
      [
        "g",
        "e"
      ],
      [
        "v",
        "e"
      ],
      [
        "ha",
        "t"
      ],
      [
        "p",
        "ort"
      ],
      [
        "g",
        "a"
      ],
      [
        "e",
        "e"
      ],
      [
        "s",
        "h"
      ],
      [
        "c",
        "o"
      ],
      [
        "l",
        "e"
      ],
      [
        "w",
        "e"
      ],
      [
        "re",
        "port"
      ],
      [
        "a",
        "t"
      ],
      [
        "s",
        "o"
      ],
      [
        "b",
        "a"
      ],
      [
        "ga",
        "me"
      ],
      [
        "i",
        "ll"
      ],
      [
        "i",
        "c"
      ],
      [
        "an",
        "d"
      ],
      [
        "o",
        "b"
      ],
      [
        "g",
        "o"
      ],
      [
        "k",
        "e"
      ],
      [
        "th",
        "is"
      ],
      [
        "r",
        "a"
      ],
      [
        "r",
        "y"
      ],
      [
        "no",
        "ob"
      ],
      [
        "a",
        "ll"
      ],
      [
        "f",
        "or"
      ],
      [
        "l",
        "i"
      ],
      [
        "j",
        "u"
      ],
      [
        "s",
        "u"
      ],
      [
        "l",
        "a"
      ],
      [
        "c",
        "h"
      ],
      [
        "m",
        "a"
      ],
      [
        ".",
        "."
      ],
      [
        "m",
        "id"
      ],
      [
        "in",
        "g"
      ],
      [
        "en",
        "d"
      ],
      [
        "h",
        "o"
      ],
      [
        "t",
        "hat"
      ],
      [
        "ea",
        "m"
      ],
      [
        "c",
        "an"
      ],
      [
        "m",
        "y"
      ],
      [
        "o",
        "k"
      ],
      [
        "s",
        "s"
      ],
      [
        "t",
        "y"
      ],
      [
        "t",
        "eam"
      ],
      [
        "d",
        "e"
      ],
      [
        "w",
        "a"
      ],
      [
        "d",
        "d"
      ],
      [
        "t",
        "a"
      ],
      [
        "gg",
        "wp"
      ],
      [
        "ha",
        "ve"
      ],
      [
        "u",
        "n"
      ],
      [
        "r",
        "i"
      ],
      [
        "u",
        "t"
      ],
      [
        "ge",
        "t"
      ],
      [
        "m",
        "o"
      ],
      [
        "ic",
        "e"
      ],
      [
        "o",
        "f"
      ],
      [
        "t",
        "i"
      ],
      [
        "co",
        "m"
      ],
      [
        "u",
        "y"
      ],
      [
        "u",
        "r"
      ],
      [
        "haha",
        "ha"
      ],
      [
        "n",
        "d"
      ],
      [
        "pl",
        "s"
      ],
      [
        "sh",
        "it"
      ],
      [
        "n",
        "ice"
      ],
      [
        "s",
        "a"
      ],
      [
        "ju",
        "st"
      ],
      [
        "w",
        "in"
      ],
      [
        "f",
        "a"
      ],
      [
        "oo",
        "d"
      ],
      [
        "d",
        "i"
      ],
      [
        "u",
        "se"
      ],
      [
        "pl",
        "ay"
      ],
      [
        "v",
        "er"
      ],
      [
        "o",
        "t"
      ],
      [
        "ar",
        "d"
      ],
      [
        "no",
        "w"
      ],
      [
        "z",
        "z"
      ],
      [
        "l",
        "y"
      ],
      [
        "w",
        "hat"
      ],
      [
        "w",
        "h"
      ],
      [
        "m",
        "in"
      ],
      [
        "wa",
        "it"
      ],
      [
        "p",
        "u"
      ],
      [
        "me",
        "nd"
      ],
      [
        "n",
        "e"
      ],
      [
        "a",
        "a"
      ],
      [
        "g",
        "h"
      ],
      [
        "m",
        "m"
      ],
      [
        "x",
        "d"
      ],
      [
        "ee",
        "d"
      ],
      [
        "p",
        "e"
      ],
      [
        "p",
        "i"
      ],
      [
        "g",
        "ood"
      ],
      [
        "y",
        "e"
      ],
      [
        "s",
        "f"
      ],
      [
        "k",
        "ill"
      ],
      [
        "li",
        "ke"
      ],
      [
        "com",
        "mend"
      ],
      [
        "g",
        "uy"
      ],
      [
        "l",
        "d"
      ],
      [
        "co",
        "me"
      ],
      [
        "lo",
        "se"
      ],
      [
        "wh",
        "y"
      ],
      [
        "t",
        "f"
      ],
      [
        "r",
        "u"
      ],
      [
        "you",
        "r"
      ],
      [
        "d",
        "u"
      ],
      [
        "o",
        "p"
      ],
      [
        "i",
        "r"
      ],
      [
        "d",
        "a"
      ],
      [
        "n",
        "a"
      ],
      [
        "w",
        "tf"
      ],
      [
        "on",
        "e"
      ],
      [
        "w",
        "it"
      ],
      [
        "p",
        "ro"
      ],
      [
        "ba",
        "ck"
      ],
      [
        "y",
        "ea"
      ],
      [
        "oo",
        "oo"
      ],
      [
        "c",
        "ar"
      ],
      [
        "u",
        "p"
      ],
      [
        "c",
        "e"
      ],
      [
        "u",
        "s"
      ],
      [
        "ho",
        "w"
      ],
      [
        "in",
        "k"
      ],
      [
        "wit",
        "h"
      ],
      [
        ":",
        ")"
      ],
      [
        "i",
        "l"
      ],
      [
        "o",
        "w"
      ],
      [
        "p",
        "er"
      ],
      [
        "w",
        "ill"
      ],
      [
        "a",
        "s"
      ],
      [
        "it",
        "s"
      ],
      [
        "j",
        "a"
      ],
      [
        "pl",
        "ea"
      ],
      [
        "w",
        "r"
      ],
      [
        "car",
        "ry"
      ],
      [
        "plea",
        "se"
      ],
      [
        "m",
        "an"
      ],
      [
        "re",
        "t"
      ],
      [
        "b",
        "o"
      ],
      [
        "s",
        "ay"
      ],
      [
        "ha",
        "n"
      ],
      [
        "w",
        "an"
      ],
      [
        "all",
        "y"
      ],
      [
        "ti",
        "me"
      ],
      [
        "f",
        "f"
      ],
      [
        "s",
        "l"
      ],
      [
        "c",
        "t"
      ],
      [
        "f",
        "l"
      ],
      [
        "ba",
        "d"
      ],
      [
        "r",
        "d"
      ],
      [
        "pi",
        "ck"
      ],
      [
        "e",
        "m"
      ],
      [
        "b",
        "ut"
      ],
      [
        "mo",
        "re"
      ],
      [
        "c",
        "a"
      ],
      [
        "g",
        "i"
      ],
      [
        "t",
        "oo"
      ],
      [
        "we",
        "ll"
      ],
      [
        "p",
        "o"
      ],
      [
        "mm",
        "r"
      ],
      [
        "w",
        "he"
      ],
      [
        "n",
        "t"
      ],
      [
        "gh",
        "t"
      ],
      [
        "f",
        "eed"
      ],
      [
        "t",
        "ra"
      ],
      [
        "ee",
        "ee"
      ],
      [
        "n",
        "i"
      ],
      [
        "u",
        "l"
      ],
      [
        "f",
        "k"
      ],
      [
        "se",
        "e"
      ],
      [
        "k",
        "a"
      ],
      [
        "re",
        "e"
      ],
      [
        "the",
        "y"
      ],
      [
        "c",
        "ou"
      ],
      [
        "g",
        "l"
      ],
      [
        "in",
        "v"
      ],
      [
        "k",
        "now"
      ],
      [
        "t",
        "e"
      ],
      [
        "id",
        "i"
      ],
      [
        "i",
        "f"
      ],
      [
        "o",
        "m"
      ],
      [
        "oo",
        "m"
      ],
      [
        "c",
        "he"
      ],
      [
        "h",
        "h"
      ],
      [
        "fuck",
        "ing"
      ],
      [
        "di",
        "e"
      ],
      [
        "pl",
        "z"
      ],
      [
        "dd",
        "dd"
      ],
      [
        "t",
        "han"
      ],
      [
        "idi",
        "ot"
      ],
      [
        "pa",
        "use"
      ],
      [
        "l",
        "ea"
      ],
      [
        "ha",
        "rd"
      ],
      [
        "ou",
        "t"
      ],
      [
        "haha",
        "haha"
      ],
      [
        "ro",
        "fl"
      ],
      [
        "su",
        "p"
      ],
      [
        "f",
        "ar"
      ],
      [
        "w",
        "ay"
      ],
      [
        "at",
        "e"
      ],
      [
        "yea",
        "h"
      ],
      [
        "v",
        "en"
      ],
      [
        "d",
        "ge"
      ],
      [
        "sa",
        "d"
      ],
      [
        "t",
        "al"
      ],
      [
        "an",
        "e"
      ],
      [
        "w",
        "or"
      ],
      [
        "w",
        "ow"
      ],
      [
        "re",
        "a"
      ],
      [
        "wan",
        "t"
      ],
      [
        "k",
        "k"
      ],
      [
        "a",
        "b"
      ],
      [
        "pu",
        "dge"
      ],
      [
        "e",
        "ver"
      ],
      [
        "f",
        "e"
      ],
      [
        "s",
        "y"
      ],
      [
        "far",
        "m"
      ],
      [
        "u",
        "e"
      ],
      [
        "w",
        "ho"
      ],
      [
        "tal",
        "k"
      ],
      [
        "j",
        "o"
      ],
      [
        "is",
        "h"
      ],
      [
        "b",
        "la"
      ],
      [
        "d",
        "oom"
      ],
      [
        "e",
        "s"
      ],
      [
        "ret",
        "ard"
      ],
      [
        "1",
        "0"
      ],
      [
        "f",
        "in"
      ],
      [
        "n",
        "g"
      ],
      [
        "le",
        "t"
      ],
      [
        "..",
        "."
      ],
      [
        "ok",
        "er"
      ],
      [
        "do",
        "ta"
      ],
      [
        ":",
        "("
      ],
      [
        "m",
        "u"
      ],
      [
        "ro",
        "w"
      ],
      [
        "t",
        "ry"
      ],
      [
        "b",
        "it"
      ],
      [
        "h",
        "i"
      ],
      [
        "n",
        "eed"
      ],
      [
        "ar",
        "k"
      ],
      [
        "th",
        "ink"
      ],
      [
        "a",
        "fk"
      ],
      [
        "y",
        "a"
      ],
      [
        "ea",
        "sy"
      ],
      [
        "de",
        "f"
      ],
      [
        "tra",
        "sh"
      ],
      [
        "q",
        "op"
      ],
      [
        "an",
        "y"
      ],
      [
        "re",
        "ally"
      ],
      [
        "a",
        "x"
      ],
      [
        "v",
        "i"
      ],
      [
        "ma",
        "o"
      ],
      [
        "b",
        "uy"
      ],
      [
        "c",
        "on"
      ],
      [
        "l",
        "u"
      ],
      [
        "st",
        "ill"
      ],
      [
        "su",
        "ck"
      ],
      [
        "than",
        "k"
      ],
      [
        "m",
        "i"
      ],
      [
        "ha",
        "h"
      ],
      [
        "l",
        "ane"
      ],
      [
        "l",
        "mao"
      ],
      [
        "ou",
        "ld"
      ],
      [
        "al",
        "che"
      ],
      [
        "the",
        "r"
      ],
      [
        "k",
        "i"
      ],
      [
        "ye",
        "s"
      ],
      [
        "o",
        "h"
      ],
      [
        "so",
        "me"
      ],
      [
        "ja",
        "ja"
      ],
      [
        "b",
        "i"
      ],
      [
        "c",
        "u"
      ],
      [
        "th",
        "ing"
      ],
      [
        "t",
        "er"
      ],
      [
        "b",
        "ot"
      ],
      [
        "d",
        "ea"
      ],
      [
        "w",
        "8"
      ],
      [
        "a",
        "h"
      ],
      [
        "d",
        "y"
      ],
      [
        "s",
        "or"
      ],
      [
        "haha",
        "h"
      ],
      [
        "a",
        "w"
      ],
      [
        "sl",
        "ark"
      ],
      [
        "v",
        "o"
      ],
      [
        "gg",
        "gg"
      ],
      [
        "gi",
        "ve"
      ],
      [
        "fu",
        "n"
      ],
      [
        "b",
        "y"
      ],
      [
        "l",
        "in"
      ],
      [
        "be",
        "r"
      ],
      [
        "whe",
        "n"
      ],
      [
        "inv",
        "oker"
      ],
      [
        "om",
        "g"
      ],
      [
        "sor",
        "ry"
      ],
      [
        "p",
        "p"
      ],
      [
        "to",
        "p"
      ],
      [
        "ut",
        "e"
      ],
      [
        "lu",
        "ck"
      ],
      [
        "w",
        "ard"
      ],
      [
        "ou",
        "r"
      ],
      [
        "st",
        "op"
      ],
      [
        "sup",
        "port"
      ],
      [
        "b",
        "ro"
      ],
      [
        "q",
        "u"
      ],
      [
        "on",
        "ly"
      ],
      [
        "0",
        "0"
      ],
      [
        "f",
        "i"
      ],
      [
        "he",
        "l"
      ],
      [
        "bit",
        "ch"
      ],
      [
        "a",
        "ga"
      ],
      [
        "s",
        "pe"
      ],
      [
        "the",
        "n"
      ],
      [
        "r",
        "un"
      ],
      [
        "f",
        "ro"
      ],
      [
        "w",
        "w"
      ],
      [
        "bla",
        "me"
      ],
      [
        "r",
        "an"
      ],
      [
        "on",
        "g"
      ],
      [
        "zz",
        "zz"
      ],
      [
        "du",
        "de"
      ],
      [
        "c",
        "er"
      ],
      [
        "h",
        "f"
      ],
      [
        "fa",
        "st"
      ],
      [
        "su",
        "re"
      ],
      [
        "v",
        "s"
      ],
      [
        "y",
        "y"
      ],
      [
        "he",
        "ro"
      ],
      [
        "ss",
        "i"
      ],
      [
        "aa",
        "aa"
      ],
      [
        "b",
        "b"
      ],
      [
        "e",
        "ven"
      ],
      [
        "oooo",
        "oooo"
      ],
      [
        "us",
        "k"
      ],
      [
        "bo",
        "y"
      ],
      [
        "f",
        "o"
      ],
      [
        "h",
        "is"
      ],
      [
        "w",
        "k"
      ],
      [
        "al",
        "ch"
      ],
      [
        "i",
        "m"
      ],
      [
        "w",
        "n"
      ],
      [
        "aga",
        "in"
      ],
      [
        "se",
        "c"
      ],
      [
        "fro",
        "m"
      ],
      [
        "b",
        "u"
      ],
      [
        "s",
        "ha"
      ],
      [
        "the",
        "re"
      ],
      [
        "le",
        "ss"
      ],
      [
        "play",
        "er"
      ],
      [
        "dea",
        "d"
      ],
      [
        "mu",
        "ch"
      ],
      [
        "re",
        "k"
      ],
      [
        "st",
        "up"
      ],
      [
        "stup",
        "id"
      ],
      [
        "s",
        "k"
      ],
      [
        "la",
        "g"
      ],
      [
        "un",
        "t"
      ],
      [
        "of",
        "f"
      ],
      [
        "whe",
        "re"
      ],
      [
        "lea",
        "ve"
      ],
      [
        "fin",
        "ish"
      ],
      [
        "s",
        "i"
      ],
      [
        "s",
        "il"
      ],
      [
        "re",
        "al"
      ],
      [
        "ar",
        "t"
      ],
      [
        "ma",
        "d"
      ],
      [
        "ta",
        "ke"
      ],
      [
        "ri",
        "ght"
      ],
      [
        "t",
        "in"
      ],
      [
        "lo",
        "ve"
      ],
      [
        "ju",
        "gg"
      ],
      [
        "b",
        "l"
      ],
      [
        "d",
        "ay"
      ],
      [
        "w",
        "at"
      ],
      [
        "ri",
        "ki"
      ],
      [
        "fa",
        "il"
      ],
      [
        "lo",
        "w"
      ],
      [
        "cou",
        "nt"
      ],
      [
        "ever",
        "y"
      ],
      [
        "rek",
        "t"
      ],
      [
        "f",
        "ir"
      ],
      [
        "he",
        "re"
      ],
      [
        "in",
        "t"
      ],
      [
        "way",
        "s"
      ],
      [
        "b",
        "ye"
      ],
      [
        "g",
        "ay"
      ],
      [
        "ea",
        "r"
      ],
      [
        "sil",
        "en"
      ],
      [
        "b",
        "le"
      ],
      [
        "c",
        "m"
      ],
      [
        "s",
        "ni"
      ],
      [
        "ha",
        "pp"
      ],
      [
        "c",
        "unt"
      ],
      [
        "k",
        "id"
      ],
      [
        "lo",
        "ng"
      ],
      [
        "li",
        "fe"
      ],
      [
        "em",
        "ber"
      ],
      [
        "e",
        "t"
      ],
      [
        "f",
        "ri"
      ],
      [
        "f",
        "ree"
      ],
      [
        "s",
        "he"
      ],
      [
        "oo",
        "k"
      ],
      [
        "al",
        "ways"
      ],
      [
        "le",
        "l"
      ],
      [
        "eeee",
        "eeee"
      ],
      [
        "g",
        "re"
      ],
      [
        "u",
        "u"
      ],
      [
        "fir",
        "st"
      ],
      [
        "a",
        "c"
      ],
      [
        "a",
        "d"
      ],
      [
        "l",
        "c"
      ],
      [
        "m",
        "is"
      ],
      [
        "do",
        "n"
      ],
      [
        "th",
        "x"
      ],
      [
        "ul",
        "t"
      ],
      [
        "ul",
        "ti"
      ],
      [
        "we",
        "w"
      ],
      [
        "per",
        "u"
      ],
      [
        "a",
        "m"
      ],
      [
        "e",
        "l"
      ],
      [
        "la",
        "st"
      ],
      [
        "dddd",
        "dddd"
      ],
      [
        "hel",
        "p"
      ],
      [
        "i",
        "i"
      ],
      [
        "lo",
        "ok"
      ],
      [
        "tin",
        "y"
      ],
      [
        "c",
        "ry"
      ],
      [
        "n",
        "y"
      ],
      [
        "w",
        "ould"
      ],
      [
        "it",
        "em"
      ],
      [
        "do",
        "wn"
      ],
      [
        "ee",
        "p"
      ],
      [
        "li",
        "on"
      ],
      [
        "ca",
        "use"
      ],
      [
        "vo",
        "id"
      ],
      [
        "fri",
        "end"
      ],
      [
        "te",
        "ll"
      ],
      [
        "luck",
        "y"
      ],
      [
        "2",
        "0"
      ],
      [
        "b",
        "ra"
      ],
      [
        "h",
        "it"
      ],
      [
        "wor",
        "th"
      ],
      [
        "4",
        "k"
      ],
      [
        "e",
        "x"
      ],
      [
        "lin",
        "a"
      ],
      [
        "b",
        "h"
      ],
      [
        "d",
        "c"
      ],
      [
        "i",
        "g"
      ],
      [
        "l",
        "f"
      ],
      [
        "m",
        "b"
      ],
      [
        "r",
        "at"
      ],
      [
        "y",
        "o"
      ],
      [
        "an",
        "k"
      ],
      [
        "st",
        "fu"
      ],
      [
        "go",
        "d"
      ],
      [
        "ma",
        "g"
      ],
      [
        "sl",
        "ard"
      ],
      [
        "sni",
        "per"
      ],
      [
        "^",
        "^"
      ],
      [
        "a",
        "ct"
      ],
      [
        "i",
        "on"
      ],
      [
        "m",
        "or"
      ],
      [
        "id",
        "e"
      ],
      [
        "hat",
        "e"
      ],
      [
        "ca",
        "re"
      ],
      [
        "h",
        "ook"
      ],
      [
        "p",
        "re"
      ],
      [
        "rea",
        "dy"
      ],
      [
        "ax",
        "e"
      ],
      [
        "slard",
        "ar"
      ],
      [
        "m",
        "ate"
      ],
      [
        "s",
        "pa"
      ],
      [
        "me",
        "an"
      ],
      [
        "ge",
        "ge"
      ],
      [
        "..",
        ".."
      ],
      [
        "silen",
        "cer"
      ],
      [
        "a",
        "ss"
      ],
      [
        "x",
        "t"
      ],
      [
        "z",
        "e"
      ],
      [
        "st",
        "or"
      ],
      [
        "s",
        "ry"
      ],
      [
        "t",
        "w"
      ],
      [
        "he",
        "y"
      ],
      [
        "st",
        "e"
      ],
      [
        "pl",
        "e"
      ],
      [
        "th",
        "o"
      ],
      [
        "ma",
        "ke"
      ],
      [
        "di",
        "ck"
      ],
      [
        "c",
        "ree"
      ],
      [
        "m",
        "ir"
      ],
      [
        "s",
        "p"
      ],
      [
        "s",
        "kill"
      ],
      [
        "he",
        "he"
      ],
      [
        "lo",
        "ck"
      ],
      [
        "en",
        "t"
      ],
      [
        "mo",
        "ther"
      ],
      [
        "hahaha",
        "h"
      ],
      [
        "in",
        "e"
      ],
      [
        "an",
        "a"
      ],
      [
        "th",
        "row"
      ],
      [
        "qu",
        "it"
      ],
      [
        "fi",
        "ght"
      ],
      [
        "st",
        "a"
      ],
      [
        "fuck",
        "er"
      ],
      [
        "ne",
        "xt"
      ],
      [
        "ab",
        "out"
      ],
      [
        "mis",
        "s"
      ],
      [
        "cree",
        "p"
      ],
      [
        "st",
        "art"
      ],
      [
        "ne",
        "c"
      ],
      [
        "ne",
        "ver"
      ],
      [
        "cu",
        "m"
      ],
      [
        "mir",
        "ana"
      ],
      [
        "k",
        "b"
      ],
      [
        "pu",
        "sh"
      ],
      [
        "ru",
        "ssi"
      ],
      [
        "a",
        "haha"
      ],
      [
        "an",
        "t"
      ],
      [
        "ou",
        "s"
      ],
      [
        "sh",
        "ut"
      ],
      [
        "m",
        "n"
      ],
      [
        "r",
        "s"
      ],
      [
        "t",
        "t"
      ],
      [
        "t",
        "usk"
      ],
      [
        "so",
        "lo"
      ],
      [
        "ver",
        "y"
      ],
      [
        "come",
        "back"
      ],
      [
        "wan",
        "na"
      ],
      [
        "fo",
        "re"
      ],
      [
        "b",
        "r"
      ],
      [
        "f",
        "ck"
      ],
      [
        "f",
        "ee"
      ],
      [
        "g",
        "ue"
      ],
      [
        "k",
        "eep"
      ],
      [
        "o",
        "d"
      ],
      [
        "2",
        "5"
      ],
      [
        "a",
        "f"
      ],
      [
        "d",
        "er"
      ],
      [
        "g",
        "j"
      ],
      [
        "i",
        "e"
      ],
      [
        "ba",
        "it"
      ],
      [
        ":)",
        ")"
      ],
      [
        "inv",
        "o"
      ],
      [
        "jo",
        "jo"
      ],
      [
        "2",
        "k"
      ],
      [
        "o",
        "ver"
      ],
      [
        "an",
        "g"
      ],
      [
        "me",
        "e"
      ],
      [
        "al",
        "ready"
      ],
      [
        "sh",
        "ould"
      ],
      [
        "ri",
        "p"
      ],
      [
        "mo",
        "m"
      ],
      [
        "mo",
        "st"
      ],
      [
        "use",
        "less"
      ],
      [
        "wr",
        "ong"
      ],
      [
        "d",
        "is"
      ],
      [
        "u",
        "gh"
      ],
      [
        "ra",
        "ge"
      ],
      [
        "cou",
        "ld"
      ],
      [
        "jo",
        "ke"
      ],
      [
        "spe",
        "c"
      ],
      [
        "fee",
        "l"
      ],
      [
        "r",
        "r"
      ],
      [
        "se",
        "r"
      ],
      [
        "li",
        "e"
      ],
      [
        "ok",
        "ay"
      ],
      [
        "kk",
        "kk"
      ],
      [
        "bi",
        "ck"
      ],
      [
        "act",
        "u"
      ],
      [
        "5",
        "k"
      ],
      [
        "l",
        "it"
      ],
      [
        "m",
        "ute"
      ],
      [
        "n",
        "p"
      ],
      [
        "s",
        "m"
      ],
      [
        "s",
        "on"
      ],
      [
        "t",
        "le"
      ],
      [
        "w",
        "er"
      ],
      [
        "st",
        "un"
      ],
      [
        "ic",
        "h"
      ],
      [
        "na",
        "h"
      ],
      [
        "russi",
        "an"
      ],
      [
        "1",
        "k"
      ],
      [
        "b",
        "s"
      ],
      [
        "j",
        "e"
      ],
      [
        "l",
        "v"
      ],
      [
        "p",
        "t"
      ],
      [
        "t",
        "p"
      ],
      [
        "st",
        "r"
      ],
      [
        "ll",
        "ll"
      ],
      [
        "go",
        "ld"
      ],
      [
        "un",
        "pause"
      ],
      [
        "ru",
        "bick"
      ],
      [
        "du",
        "mb"
      ],
      [
        "wor",
        "k"
      ],
      [
        "gggg",
        "gggg"
      ],
      [
        "mee",
        "po"
      ],
      [
        "c",
        "i"
      ],
      [
        "c",
        "ha"
      ],
      [
        "m",
        "on"
      ],
      [
        "r",
        "c"
      ],
      [
        "w",
        "i"
      ],
      [
        "no",
        "y"
      ],
      [
        "st",
        "ea"
      ],
      [
        "de",
        "d"
      ],
      [
        "hh",
        "hh"
      ],
      [
        "vi",
        "an"
      ],
      [
        "nec",
        "ro"
      ],
      [
        "h",
        "p"
      ],
      [
        "l",
        "ate"
      ],
      [
        "m",
        "p"
      ],
      [
        "s",
        "b"
      ],
      [
        "se",
        "lf"
      ],
      [
        "it",
        "e"
      ],
      [
        "ou",
        "n"
      ],
      [
        "do",
        "g"
      ],
      [
        "min",
        "ute"
      ],
      [
        "da",
        "mn"
      ],
      [
        "pick",
        "er"
      ],
      [
        "bl",
        "ink"
      ],
      [
        "1",
        "1"
      ],
      [
        "3",
        "0"
      ],
      [
        "b",
        "oo"
      ],
      [
        "b",
        "ar"
      ],
      [
        "b",
        "al"
      ],
      [
        "c",
        "all"
      ],
      [
        "f",
        "la"
      ],
      [
        "p",
        "pa"
      ],
      [
        "s",
        "ven"
      ],
      [
        "sa",
        "me"
      ],
      [
        "ru",
        "in"
      ],
      [
        "peru",
        "vian"
      ],
      [
        "stor",
        "m"
      ],
      [
        "1",
        "5"
      ],
      [
        "b",
        "kb"
      ],
      [
        "c",
        "lose"
      ],
      [
        "h",
        "usk"
      ],
      [
        "i",
        "z"
      ],
      [
        "n",
        "er"
      ],
      [
        "an",
        "ce"
      ],
      [
        "oo",
        "l"
      ],
      [
        "le",
        "gi"
      ],
      [
        "gre",
        "at"
      ],
      [
        "actu",
        "ally"
      ],
      [
        "1",
        "2"
      ],
      [
        "c",
        "l"
      ],
      [
        "d",
        "at"
      ],
      [
        "g",
        "y"
      ],
      [
        "k",
        "er"
      ],
      [
        "no",
        "thing"
      ],
      [
        "ju",
        "g"
      ],
      [
        "ri",
        "er"
      ],
      [
        "ax",
        "ax"
      ],
      [
        "ran",
        "do"
      ],
      [
        "happ",
        "y"
      ],
      [
        ".",
        "/"
      ],
      [
        "=",
        ")"
      ],
      [
        "m",
        "at"
      ],
      [
        "p",
        "ut"
      ],
      [
        "t",
        "ro"
      ],
      [
        "w",
        "o"
      ],
      [
        "al",
        "so"
      ],
      [
        "ke",
        "y"
      ],
      [
        "of",
        "fl"
      ],
      [
        "ne",
        "ct"
      ],
      [
        "da",
        "zz"
      ],
      [
        "ni",
        "gg"
      ],
      [
        "fun",
        "ny"
      ],
      [
        "ear",
        "ly"
      ],
      [
        "ble",
        "m"
      ],
      [
        "ze",
        "us"
      ],
      [
        "s",
        "c"
      ],
      [
        "t",
        "ru"
      ],
      [
        "he",
        "ad"
      ],
      [
        "be",
        "fore"
      ],
      [
        "fa",
        "gg"
      ],
      [
        "gl",
        "hf"
      ],
      [
        "con",
        "nect"
      ],
      [
        "c",
        "lock"
      ],
      [
        "i",
        "ck"
      ],
      [
        "st",
        "er"
      ],
      [
        "ar",
        "ded"
      ],
      [
        "the",
        "se"
      ],
      [
        "co",
        "mend"
      ],
      [
        "mm",
        "mm"
      ],
      [
        "pro",
        "blem"
      ],
      [
        "def",
        "end"
      ],
      [
        "lin",
        "e"
      ],
      [
        "spe",
        "ct"
      ],
      [
        "count",
        "er"
      ],
      [
        "lv",
        "l"
      ],
      [
        "./",
        "."
      ],
      [
        "g",
        "ank"
      ],
      [
        "r",
        "it"
      ],
      [
        "no",
        "pe"
      ],
      [
        "me",
        "nt"
      ],
      [
        "it",
        "y"
      ],
      [
        "ju",
        "ng"
      ],
      [
        "sa",
        "fe"
      ],
      [
        "fagg",
        "ot"
      ],
      [
        "jung",
        "le"
      ],
      [
        "a",
        "hahaha"
      ],
      [
        "k",
        "in"
      ],
      [
        "o",
        "ple"
      ],
      [
        "p",
        "ing"
      ],
      [
        "s",
        "ir"
      ],
      [
        "re",
        "la"
      ],
      [
        "ea",
        "k"
      ],
      [
        "en",
        "gl"
      ],
      [
        "ma",
        "ge"
      ],
      [
        "wa",
        "ste"
      ],
      [
        "pe",
        "ople"
      ],
      [
        "ret",
        "arded"
      ],
      [
        "ka",
        "ppa"
      ],
      [
        "cou",
        "rier"
      ],
      [
        "rea",
        "m"
      ],
      [
        "cu",
        "z"
      ],
      [
        "happ",
        "en"
      ],
      [
        "bar",
        "a"
      ],
      [
        "legi",
        "on"
      ],
      [
        "dazz",
        "le"
      ],
      [
        "a",
        "hah"
      ],
      [
        "b",
        "ob"
      ],
      [
        "m",
        "ay"
      ],
      [
        "n",
        "u"
      ],
      [
        "p",
        "c"
      ],
      [
        "r",
        "ly"
      ],
      [
        "v",
        "5"
      ],
      [
        "be",
        "cause"
      ],
      [
        "ro",
        "sh"
      ],
      [
        "ba",
        "se"
      ],
      [
        "ss",
        "y"
      ],
      [
        "ta",
        "in"
      ],
      [
        "fa",
        "ir"
      ],
      [
        "ne",
        "w"
      ],
      [
        "om",
        "ni"
      ],
      [
        "rela",
        "x"
      ],
      [
        "engl",
        "ish"
      ],
      [
        "3",
        "k"
      ],
      [
        "a",
        "g"
      ],
      [
        "r",
        "ty"
      ],
      [
        "t",
        "ink"
      ],
      [
        "ou",
        "gh"
      ],
      [
        "oo",
        "o"
      ],
      [
        "to",
        "wer"
      ],
      [
        "ba",
        "sh"
      ],
      [
        "la",
        "d"
      ],
      [
        "pu",
        "ssy"
      ],
      [
        "ir",
        "l"
      ],
      [
        "na",
        "me"
      ],
      [
        "any",
        "way"
      ],
      [
        "vi",
        "per"
      ],
      [
        "mi",
        "st"
      ],
      [
        "int",
        "ro"
      ],
      [
        "husk",
        "ar"
      ],
      [
        "tro",
        "ll"
      ],
      [
        "b",
        "g"
      ],
      [
        "l",
        "m"
      ],
      [
        "n",
        "c"
      ],
      [
        "t",
        "ard"
      ],
      [
        "he",
        "r"
      ],
      [
        "haha",
        "hahaha"
      ],
      [
        "ur",
        "sa"
      ],
      [
        "zz",
        "z"
      ],
      [
        "pu",
        "ck"
      ],
      [
        "du",
        "sa"
      ],
      [
        "man",
        "a"
      ],
      [
        "man",
        "y"
      ],
      [
        "ven",
        "ge"
      ],
      [
        "ab",
        "an"
      ],
      [
        "some",
        "thing"
      ],
      [
        "yy",
        "yy"
      ],
      [
        "again",
        "st"
      ],
      [
        "rando",
        "m"
      ],
      [
        "1",
        "3"
      ],
      [
        "b",
        "lo"
      ],
      [
        "c",
        "ra"
      ],
      [
        "e",
        "no"
      ],
      [
        "f",
        "at"
      ],
      [
        "i",
        "le"
      ],
      [
        "m",
        "ber"
      ],
      [
        "o",
        "sf"
      ],
      [
        "q",
        "ue"
      ],
      [
        "r",
        "p"
      ],
      [
        "v",
        "a"
      ],
      [
        "me",
        "r"
      ],
      [
        "ar",
        "row"
      ],
      [
        "th",
        "r"
      ],
      [
        "ro",
        "g"
      ],
      [
        "le",
        "g"
      ],
      [
        "ss",
        "ss"
      ],
      [
        "ne",
        "t"
      ],
      [
        "pi",
        "noy"
      ],
      [
        "bi",
        "g"
      ],
      [
        "zzzz",
        "zzzz"
      ],
      [
        "every",
        "one"
      ],
      [
        "bra",
        "in"
      ],
      [
        "osf",
        "rog"
      ],
      [
        "e",
        "u"
      ],
      [
        "h",
        "u"
      ],
      [
        "i",
        "ld"
      ],
      [
        "m",
        "g"
      ],
      [
        "p",
        "ret"
      ],
      [
        "v",
        "1"
      ],
      [
        "be",
        "t"
      ],
      [
        "en",
        "ig"
      ],
      [
        "fuck",
        "in"
      ],
      [
        "ho",
        "pe"
      ],
      [
        "un",
        "a"
      ],
      [
        "sup",
        "p"
      ],
      [
        "rea",
        "k"
      ],
      [
        "af",
        "ter"
      ],
      [
        "gy",
        "ro"
      ],
      [
        "tink",
        "er"
      ],
      [
        "pret",
        "ty"
      ],
      [
        "d",
        "r"
      ],
      [
        "d",
        "row"
      ],
      [
        "e",
        "g"
      ],
      [
        "p",
        "h"
      ],
      [
        "s",
        "al"
      ],
      [
        "at",
        "er"
      ],
      [
        "ic",
        "al"
      ],
      [
        "du",
        "el"
      ],
      [
        "alche",
        "mist"
      ],
      [
        "gue",
        "ss"
      ],
      [
        "fla",
        "me"
      ],
      [
        "bob",
        "o"
      ],
      [
        "aban",
        "don"
      ],
      [
        "eno",
        "ugh"
      ],
      [
        "enig",
        "ma"
      ],
      [
        "5",
        "0"
      ],
      [
        "a",
        "hahahaha"
      ],
      [
        "c",
        "li"
      ],
      [
        "g",
        "irl"
      ],
      [
        "ha",
        "a"
      ],
      [
        "re",
        "as"
      ],
      [
        "ou",
        "nd"
      ],
      [
        "ge",
        "m"
      ],
      [
        "sh",
        "o"
      ],
      [
        "co",
        "re"
      ],
      [
        "ra",
        "di"
      ],
      [
        "su",
        "ch"
      ],
      [
        "can",
        "cer"
      ],
      [
        "ti",
        "on"
      ],
      [
        "wh",
        "ile"
      ],
      [
        "te",
        "ch"
      ],
      [
        "uu",
        "uu"
      ],
      [
        "lit",
        "tle"
      ],
      [
        "stea",
        "l"
      ],
      [
        "lm",
        "fa"
      ],
      [
        "reas",
        "on"
      ],
      [
        "c",
        "hat"
      ],
      [
        "d",
        "ic"
      ],
      [
        "n",
        "us"
      ],
      [
        "t",
        "ri"
      ],
      [
        "w",
        "d"
      ],
      [
        "al",
        "most"
      ],
      [
        "ba",
        "by"
      ],
      [
        "ra",
        "pe"
      ],
      [
        "dd",
        "d"
      ],
      [
        "of",
        "c"
      ],
      [
        "pi",
        "e"
      ],
      [
        "as",
        "k"
      ],
      [
        "hel",
        "lo"
      ],
      [
        "aaaa",
        "aaaa"
      ],
      [
        "eeeeeeee",
        "eeeeeeee"
      ],
      [
        "cl",
        "ink"
      ],
      [
        ";",
        ")"
      ],
      [
        "a",
        "im"
      ],
      [
        "b",
        "at"
      ],
      [
        "b",
        "tw"
      ],
      [
        "c",
        "la"
      ],
      [
        "c",
        "han"
      ],
      [
        "f",
        "re"
      ],
      [
        "h",
        "t"
      ],
      [
        "i",
        "x"
      ],
      [
        "k",
        "o"
      ],
      [
        "m",
        "one"
      ],
      [
        "o",
        "ther"
      ],
      [
        "p",
        "or"
      ],
      [
        "s",
        "d"
      ],
      [
        "se",
        "ri"
      ],
      [
        "in",
        "a"
      ],
      [
        "lo",
        "t"
      ],
      [
        "st",
        "ay"
      ],
      [
        "ch",
        "ill"
      ],
      [
        "de",
        "ser"
      ],
      [
        "ur",
        "n"
      ],
      [
        "win",
        "d"
      ],
      [
        "ye",
        "p"
      ],
      [
        "lea",
        "st"
      ],
      [
        "sk",
        "y"
      ],
      [
        "mor",
        "on"
      ],
      [
        "iz",
        "i"
      ],
      [
        "nigg",
        "a"
      ],
      [
        "spect",
        "re"
      ],
      [
        "may",
        "be"
      ],
      [
        "lmfa",
        "o"
      ],
      [
        "pie",
        "ce"
      ],
      [
        "1",
        "4"
      ],
      [
        "a",
        "way"
      ],
      [
        "b",
        "or"
      ],
      [
        "c",
        "re"
      ],
      [
        "c",
        "us"
      ],
      [
        "d",
        "un"
      ],
      [
        "g",
        "r"
      ],
      [
        "g",
        "u"
      ],
      [
        "i",
        "o"
      ],
      [
        "r",
        "n"
      ],
      [
        "pa",
        "rty"
      ],
      [
        "re",
        "c"
      ],
      [
        "st",
        "and"
      ],
      [
        "en",
        "e"
      ],
      [
        "al",
        "e"
      ],
      [
        "co",
        "z"
      ],
      [
        "co",
        "ck"
      ],
      [
        "ra",
        "m"
      ],
      [
        "ra",
        "pi"
      ],
      [
        "da",
        "mage"
      ],
      [
        "fin",
        "e"
      ],
      [
        "wat",
        "ch"
      ],
      [
        "ac",
        "count"
      ],
      [
        "cum",
        "back"
      ],
      [
        "br",
        "ood"
      ],
      [
        "boo",
        "t"
      ],
      [
        "blo",
        "od"
      ],
      [
        "mone",
        "y"
      ],
      [
        "1",
        "7"
      ],
      [
        "c",
        "ool"
      ],
      [
        "c",
        "rit"
      ],
      [
        "d",
        "ream"
      ],
      [
        "d",
        "mg"
      ],
      [
        "i",
        "k"
      ],
      [
        "l",
        "ich"
      ],
      [
        "o",
        "gre"
      ],
      [
        "p",
        "ur"
      ],
      [
        "s",
        "it"
      ],
      [
        "s",
        "low"
      ],
      [
        "t",
        "n"
      ],
      [
        "se",
        "nt"
      ],
      [
        "se",
        "con"
      ],
      [
        "in",
        "to"
      ],
      [
        "on",
        "line"
      ],
      [
        "id",
        "ea"
      ],
      [
        "ge",
        "e"
      ],
      [
        "ve",
        "l"
      ],
      [
        "ke",
        "k"
      ],
      [
        "ho",
        "ly"
      ],
      [
        "mo",
        "ve"
      ],
      [
        "sa",
        "ve"
      ],
      [
        "ye",
        "t"
      ],
      [
        "du",
        "st"
      ],
      [
        "po",
        "int"
      ],
      [
        "hi",
        "gh"
      ],
      [
        "bb",
        "bb"
      ],
      [
        "bu",
        "ild"
      ],
      [
        "ac",
        "c"
      ],
      [
        "mag",
        "nus"
      ],
      [
        "sta",
        "ck"
      ],
      [
        "str",
        "ong"
      ],
      [
        "clink",
        "z"
      ],
      [
        "seri",
        "ous"
      ],
      [
        "deser",
        "ve"
      ],
      [
        "secon",
        "d"
      ],
      [
        "1",
        "v1"
      ],
      [
        "5",
        "5"
      ],
      [
        "b",
        "ly"
      ],
      [
        "b",
        "oun"
      ],
      [
        "c",
        "le"
      ],
      [
        "d",
        "s"
      ],
      [
        "h",
        "mm"
      ],
      [
        "l",
        "an"
      ],
      [
        "l",
        "una"
      ],
      [
        "o",
        "l"
      ],
      [
        "p",
        "r"
      ],
      [
        "t",
        "ank"
      ],
      [
        "v",
        "p"
      ],
      [
        "he",
        "ll"
      ],
      [
        "he",
        "al"
      ],
      [
        "ou",
        "se"
      ],
      [
        "al",
        "c"
      ],
      [
        "al",
        "i"
      ],
      [
        "go",
        "go"
      ],
      [
        "un",
        "der"
      ],
      [
        "ru",
        "b"
      ],
      [
        "po",
        "or"
      ],
      [
        "ran",
        "k"
      ],
      [
        "oooooooo",
        "oooooooo"
      ],
      [
        "fo",
        "cus"
      ],
      [
        "dddddddd",
        "dddddddd"
      ],
      [
        "ii",
        "ii"
      ],
      [
        "spa",
        "ce"
      ],
      [
        "offl",
        "ane"
      ],
      [
        "1",
        "6"
      ],
      [
        "2",
        "2"
      ],
      [
        "b",
        "an"
      ],
      [
        "d",
        "en"
      ],
      [
        "f",
        "b"
      ],
      [
        "g",
        "er"
      ],
      [
        "g",
        "ra"
      ],
      [
        "j",
        "oker"
      ],
      [
        "s",
        "in"
      ],
      [
        "s",
        "oo"
      ],
      [
        "t",
        "r"
      ],
      [
        "y",
        "u"
      ],
      [
        "z",
        "a"
      ],
      [
        "gg",
        "g"
      ],
      [
        "re",
        "connect"
      ],
      [
        "lo",
        "lo"
      ],
      [
        "ea",
        "t"
      ],
      [
        "do",
        "to"
      ],
      [
        "ve",
        "no"
      ],
      [
        "ho",
        "le"
      ],
      [
        "ti",
        "l"
      ],
      [
        "yea",
        "r"
      ],
      [
        "ow",
        "n"
      ],
      [
        "as",
        "sho"
      ],
      [
        "po",
        "se"
      ],
      [
        "feed",
        "er"
      ],
      [
        "mu",
        "st"
      ],
      [
        "buy",
        "er"
      ],
      [
        "qu",
        "i"
      ],
      [
        "pre",
        "dic"
      ],
      [
        "bal",
        "ance"
      ],
      [
        "mat",
        "ch"
      ],
      [
        "tru",
        "e"
      ],
      [
        "thr",
        "one"
      ],
      [
        "ram",
        "pa"
      ],
      [
        "assho",
        "le"
      ],
      [
        "balance",
        "d"
      ],
      [
        "a",
        "u"
      ],
      [
        "a",
        "gh"
      ],
      [
        "g",
        "ree"
      ],
      [
        "l",
        "ater"
      ],
      [
        "t",
        "ide"
      ],
      [
        "se",
        "nd"
      ],
      [
        "ll",
        "y"
      ],
      [
        "do",
        "w"
      ],
      [
        "id",
        "k"
      ],
      [
        "le",
        "sh"
      ],
      [
        "ob",
        "vi"
      ],
      [
        "ch",
        "o"
      ],
      [
        "ma",
        "il"
      ],
      [
        "team",
        "mate"
      ],
      [
        "shit",
        "ty"
      ],
      [
        "min",
        "d"
      ],
      [
        "lea",
        "rn"
      ],
      [
        "wor",
        "ry"
      ],
      [
        "farm",
        "ing"
      ],
      [
        "10",
        "0"
      ],
      [
        "any",
        "thing"
      ],
      [
        "ah",
        "ha"
      ],
      [
        "sha",
        "ker"
      ],
      [
        "ny",
        "x"
      ],
      [
        "cli",
        "ck"
      ],
      [
        "1",
        "st"
      ],
      [
        "2",
        "4"
      ],
      [
        "a",
        "dd"
      ],
      [
        "a",
        "hahah"
      ],
      [
        "a",
        "eg"
      ],
      [
        "c",
        "ent"
      ],
      [
        "d",
        "k"
      ],
      [
        "f",
        "g"
      ],
      [
        "g",
        "on"
      ],
      [
        "m",
        "ing"
      ],
      [
        "m",
        "vp"
      ],
      [
        "r",
        "t"
      ],
      [
        "s",
        "care"
      ],
      [
        "t",
        "on"
      ],
      [
        "w",
        "ea"
      ],
      [
        "pa",
        "per"
      ],
      [
        "re",
        "d"
      ],
      [
        "re",
        "su"
      ],
      [
        "re",
        "nt"
      ],
      [
        "lo",
        "ss"
      ],
      [
        "ou",
        "ch"
      ],
      [
        "ck",
        "et"
      ],
      [
        "haha",
        "a"
      ],
      [
        "st",
        "ard"
      ],
      [
        "fu",
        "l"
      ],
      [
        "pl",
        "a"
      ],
      [
        "th",
        "ough"
      ],
      [
        "ee",
        "e"
      ],
      [
        "co",
        "in"
      ],
      [
        "le",
        "vel"
      ],
      [
        "ra",
        "p"
      ],
      [
        "fa",
        "ce"
      ],
      [
        "aa",
        "a"
      ],
      [
        "ca",
        "p"
      ],
      [
        "hahahaha",
        "h"
      ],
      [
        "bla",
        "ck"
      ],
      [
        "any",
        "one"
      ],
      [
        "dea",
        "th"
      ],
      [
        "ww",
        "w"
      ],
      [
        "ssi",
        "ve"
      ],
      [
        "jugg",
        "er"
      ],
      [
        "cm",
        "on"
      ],
      [
        "tho",
        "se"
      ],
      [
        "sp",
        "eak"
      ],
      [
        "radi",
        "ant"
      ],
      [
        "tech",
        "ie"
      ],
      [
        "predic",
        "t"
      ],
      [
        "rampa",
        "ge"
      ],
      [
        ":",
        "/"
      ],
      [
        "a",
        "no"
      ],
      [
        "c",
        "y"
      ],
      [
        "c",
        "at"
      ],
      [
        "e",
        "d"
      ],
      [
        "e",
        "h"
      ],
      [
        "f",
        "v"
      ],
      [
        "h",
        "ood"
      ],
      [
        "i",
        "st"
      ],
      [
        "j",
        "k"
      ],
      [
        "r",
        "q"
      ],
      [
        "s",
        "mo"
      ],
      [
        "t",
        "u"
      ],
      [
        "v",
        "is"
      ],
      [
        "w",
        "oo"
      ],
      [
        "w",
        "ar"
      ],
      [
        "w",
        "is"
      ],
      [
        "ą",
        "ą"
      ],
      [
        "se",
        "t"
      ],
      [
        "ha",
        "y"
      ],
      [
        "ha",
        "nd"
      ],
      [
        "no",
        "oo"
      ],
      [
        "re",
        "start"
      ],
      [
        "in",
        "joker"
      ],
      [
        "be",
        "lie"
      ],
      [
        "me",
        "dusa"
      ],
      [
        "ck",
        "le"
      ],
      [
        "st",
        "eam"
      ],
      [
        "to",
        "day"
      ],
      [
        "we",
        "l"
      ],
      [
        "ur",
        "t"
      ],
      [
        "di",
        "re"
      ],
      [
        "bo",
        "dy"
      ],
      [
        "lea",
        "gue"
      ],
      [
        "wor",
        "d"
      ],
      [
        "ya",
        "h"
      ],
      [
        "jaja",
        "jaja"
      ],
      [
        ":))",
        ")"
      ],
      [
        "kkkk",
        "kkkk"
      ],
      [
        "boun",
        "ty"
      ],
      [
        "smo",
        "ke"
      ],
      [
        "belie",
        "ve"
      ],
      [
        "4",
        "v5"
      ],
      [
        "a",
        "ma"
      ],
      [
        "b",
        "oom"
      ],
      [
        "g",
        "in"
      ],
      [
        "i",
        "ght"
      ],
      [
        "k",
        "ing"
      ],
      [
        "k",
        "un"
      ],
      [
        "p",
        "pl"
      ],
      [
        "p",
        "ri"
      ],
      [
        "s",
        "wa"
      ],
      [
        "t",
        "ree"
      ],
      [
        "in",
        "ter"
      ],
      [
        "in",
        "stea"
      ],
      [
        "lo",
        "rd"
      ],
      [
        "lol",
        "z"
      ],
      [
        "fu",
        "k"
      ],
      [
        "su",
        "s"
      ],
      [
        "su",
        "ic"
      ],
      [
        "ri",
        "st"
      ],
      [
        "fa",
        "ult"
      ],
      [
        "na",
        "ga"
      ],
      [
        "with",
        "out"
      ],
      [
        "hh",
        "h"
      ],
      [
        "who",
        "le"
      ],
      [
        "ran",
        "ge"
      ],
      [
        "llll",
        "llll"
      ],
      [
        "leg",
        "end"
      ],
      [
        "sal",
        "ty"
      ],
      [
        "ene",
        "my"
      ],
      [
        "sent",
        "ry"
      ],
      [
        "under",
        "stand"
      ],
      [
        "obvi",
        "ous"
      ],
      [
        "aeg",
        "is"
      ],
      [
        "instea",
        "d"
      ],
      [
        "1",
        "8"
      ],
      [
        "5",
        "00"
      ],
      [
        "d",
        "p"
      ],
      [
        "d",
        "ou"
      ],
      [
        "f",
        "oun"
      ],
      [
        "i",
        "se"
      ],
      [
        "k",
        "s"
      ],
      [
        "l",
        "ee"
      ],
      [
        "t",
        "b"
      ],
      [
        "t",
        "en"
      ],
      [
        "u",
        "re"
      ],
      [
        "v",
        "oker"
      ],
      [
        "w",
        "al"
      ],
      [
        "w",
        "ood"
      ],
      [
        "se",
        "x"
      ],
      [
        "lo",
        "ne"
      ],
      [
        "me",
        "ta"
      ],
      [
        "er",
        "ally"
      ],
      [
        "pl",
        "an"
      ],
      [
        "at",
        "ion"
      ],
      [
        "ba",
        "stard"
      ],
      [
        "pu",
        "g"
      ],
      [
        "bla",
        "de"
      ],
      [
        "spe",
        "ll"
      ],
      [
        "wk",
        "wk"
      ],
      [
        "sha",
        "me"
      ],
      [
        "sha",
        "ckle"
      ],
      [
        "ig",
        "n"
      ],
      [
        "stor",
        "y"
      ],
      [
        "lit",
        "erally"
      ],
      [
        "agh",
        "s"
      ],
      [
        "resu",
        "me"
      ],
      [
        "swa",
        "p"
      ],
      [
        "suic",
        "ide"
      ],
      [
        "(",
        ":"
      ],
      [
        "2",
        "00"
      ],
      [
        "6",
        "k"
      ],
      [
        "_",
        "t"
      ],
      [
        "a",
        "o"
      ],
      [
        "b",
        "f"
      ],
      [
        "b",
        "in"
      ],
      [
        "b",
        "ru"
      ],
      [
        "d",
        "ro"
      ],
      [
        "k",
        "on"
      ],
      [
        "k",
        "at"
      ],
      [
        "l",
        "ay"
      ],
      [
        "o",
        "key"
      ],
      [
        "p",
        "m"
      ],
      [
        "s",
        "pi"
      ],
      [
        "s",
        "car"
      ],
      [
        "s",
        "rs"
      ],
      [
        "u",
        "m"
      ],
      [
        "w",
        "t"
      ],
      [
        "w",
        "on"
      ],
      [
        "w",
        "eak"
      ],
      [
        "x",
        "dd"
      ],
      [
        "y",
        "up"
      ],
      [
        "re",
        "p"
      ],
      [
        "re",
        "gi"
      ],
      [
        "re",
        "con"
      ],
      [
        "in",
        "d"
      ],
      [
        "an",
        "ci"
      ],
      [
        "me",
        "me"
      ],
      [
        "st",
        "ra"
      ],
      [
        "ea",
        "ch"
      ],
      [
        "oo",
        "t"
      ],
      [
        "ez",
        "e"
      ],
      [
        "the",
        "ir"
      ],
      [
        "sh",
        "i"
      ],
      [
        "for",
        "get"
      ],
      [
        "li",
        "ve"
      ],
      [
        "su",
        "e"
      ],
      [
        "su",
        "port"
      ],
      [
        "la",
        "ugh"
      ],
      [
        "de",
        "le"
      ],
      [
        "de",
        "ff"
      ],
      [
        "dd",
        "y"
      ],
      [
        "of",
        "legend"
      ],
      [
        "your",
        "self"
      ],
      [
        "bo",
        "th"
      ],
      [
        "10",
        "00"
      ],
      [
        "try",
        "hard"
      ],
      [
        "any",
        "more"
      ],
      [
        "buy",
        "back"
      ],
      [
        "mi",
        "ra"
      ],
      [
        "hah",
        "ha"
      ],
      [
        "sha",
        "dow"
      ],
      [
        "tt",
        "tt"
      ],
      [
        "jojo",
        "jojo"
      ],
      [
        "je",
        "sus"
      ],
      [
        "chan",
        "ce"
      ],
      [
        "den",
        "y"
      ],
      [
        "cap",
        "tain"
      ],
      [
        "ano",
        "ther"
      ],
      [
        "league",
        "oflegend"
      ],
      [
        "foun",
        "tain"
      ],
      [
        "regi",
        "ster"
      ],
      [
        "leagueoflegend",
        "s"
      ],
      [
        "2",
        "7"
      ],
      [
        "8",
        "k"
      ],
      [
        "a",
        "st"
      ],
      [
        "a",
        "ge"
      ],
      [
        "a",
        "ut"
      ],
      [
        "b",
        "t"
      ],
      [
        "b",
        "re"
      ],
      [
        "c",
        "en"
      ],
      [
        "f",
        "t"
      ],
      [
        "f",
        "em"
      ],
      [
        "g",
        "ar"
      ],
      [
        "h",
        "c"
      ],
      [
        "h",
        "urt"
      ],
      [
        "j",
        "i"
      ],
      [
        "k",
        "y"
      ],
      [
        "m",
        "al"
      ],
      [
        "n",
        "s"
      ],
      [
        "p",
        "ea"
      ],
      [
        "p",
        "ee"
      ],
      [
        "p",
        "ff"
      ],
      [
        "p",
        "ical"
      ],
      [
        "t",
        "q"
      ],
      [
        "t",
        "re"
      ],
      [
        "t",
        "an"
      ],
      [
        "v",
        "4"
      ],
      [
        "w",
        "l"
      ],
      [
        "w",
        "y"
      ],
      [
        "gg",
        "er"
      ],
      [
        "he",
        "a"
      ],
      [
        "lo",
        "o"
      ],
      [
        "st",
        "ro"
      ],
      [
        "st",
        "reak"
      ],
      [
        "en",
        "jo"
      ],
      [
        "ro",
        "bin"
      ],
      [
        "ba",
        "bly"
      ],
      [
        "su",
        "t"
      ],
      [
        "ho",
        "me"
      ],
      [
        "ta",
        "ct"
      ],
      [
        "com",
        "bo"
      ],
      [
        "hahaha",
        "a"
      ],
      [
        "fa",
        "g"
      ],
      [
        "di",
        "ve"
      ],
      [
        "di",
        "ff"
      ],
      [
        "min",
        "s"
      ],
      [
        "ru",
        "de"
      ],
      [
        "wit",
        "ch"
      ],
      [
        "pro",
        "t"
      ],
      [
        "pro",
        "bably"
      ],
      [
        "tra",
        "ck"
      ],
      [
        "om",
        "fg"
      ],
      [
        "ab",
        "use"
      ],
      [
        "fin",
        "ally"
      ],
      [
        "some",
        "one"
      ],
      [
        "hahah",
        "ha"
      ],
      [
        "vo",
        "l"
      ],
      [
        "run",
        "e"
      ],
      [
        "bu",
        "ll"
      ],
      [
        "si",
        "ck"
      ],
      [
        "she",
        "r"
      ],
      [
        "rr",
        "rr"
      ],
      [
        "gggggggg",
        "gggggggg"
      ],
      [
        "wi",
        "pe"
      ],
      [
        "offl",
        "ine"
      ],
      [
        "cy",
        "ka"
      ],
      [
        "vis",
        "ion"
      ],
      [
        "wis",
        "p"
      ],
      [
        "anci",
        "ent"
      ],
      [
        "dele",
        "te"
      ],
      [
        "fem",
        "ale"
      ],
      [
        "pea",
        "ce"
      ],
      [
        "enjo",
        "y"
      ],
      [
        "1",
        "9"
      ],
      [
        "4",
        "0"
      ],
      [
        "a",
        "gg"
      ],
      [
        "b",
        "reak"
      ],
      [
        "d",
        "ra"
      ],
      [
        "e",
        "p"
      ],
      [
        "f",
        "ly"
      ],
      [
        "f",
        "tw"
      ],
      [
        "h",
        "ue"
      ],
      [
        "i",
        "ve"
      ],
      [
        "m",
        "s"
      ],
      [
        "m",
        "ouse"
      ],
      [
        "p",
        "he"
      ],
      [
        "p",
        "ho"
      ],
      [
        "p",
        "ow"
      ],
      [
        "r",
        "or"
      ],
      [
        "r",
        "oom"
      ],
      [
        "s",
        "w"
      ],
      [
        "s",
        "ma"
      ],
      [
        "u",
        "d"
      ],
      [
        "v",
        "al"
      ],
      [
        "w",
        "ut"
      ],
      [
        "x",
        "ic"
      ],
      [
        "z",
        "or"
      ],
      [
        "z",
        "ing"
      ],
      [
        "se",
        "a"
      ],
      [
        "re",
        "prot"
      ],
      [
        "an",
        "ti"
      ],
      [
        "st",
        "ick"
      ],
      [
        "oo",
        "p"
      ],
      [
        "do",
        "t"
      ],
      [
        "to",
        "l"
      ],
      [
        "sh",
        "ow"
      ],
      [
        "ba",
        "ll"
      ],
      [
        "ra",
        "x"
      ],
      [
        "ju",
        "ke"
      ],
      [
        "ma",
        "p"
      ],
      [
        "ty",
        "pe"
      ],
      [
        "un",
        "ch"
      ],
      [
        "ti",
        "mber"
      ],
      [
        "com",
        "m"
      ],
      [
        "fa",
        "ct"
      ],
      [
        "di",
        "v"
      ],
      [
        "what",
        "ever"
      ],
      [
        "ne",
        "ss"
      ],
      [
        "xd",
        "xd"
      ],
      [
        "du",
        "al"
      ],
      [
        "da",
        "gon"
      ],
      [
        "na",
        "p"
      ],
      [
        "man",
        "ta"
      ],
      [
        "ni",
        "ght"
      ],
      [
        "ka",
        "ka"
      ],
      [
        "inv",
        "is"
      ],
      [
        "che",
        "ck"
      ],
      [
        "wor",
        "ld"
      ],
      [
        "jaja",
        "j"
      ],
      [
        "bot",
        "tle"
      ],
      [
        "bl",
        "ue"
      ],
      [
        "yo",
        "lo"
      ],
      [
        "ser",
        "ver"
      ],
      [
        "russian",
        "s"
      ],
      [
        "mon",
        "key"
      ],
      [
        "bor",
        "ing"
      ],
      [
        "cre",
        "ate"
      ],
      [
        "pur",
        "pose"
      ],
      [
        "tn",
        "x"
      ],
      [
        "serious",
        "ly"
      ],
      [
        "sin",
        "ce"
      ],
      [
        "qui",
        "et"
      ],
      [
        "wea",
        "ver"
      ],
      [
        "ama",
        "zing"
      ],
      [
        "dro",
        "p"
      ],
      [
        "stra",
        "ight"
      ],
      [
        "2",
        "6"
      ],
      [
        "2",
        "9"
      ],
      [
        "3",
        "00"
      ],
      [
        ">",
        ">"
      ],
      [
        "_",
        "_"
      ],
      [
        "a",
        "lone"
      ],
      [
        "b",
        "ane"
      ],
      [
        "b",
        "lock"
      ],
      [
        "b",
        "urn"
      ],
      [
        "b",
        "rist"
      ],
      [
        "c",
        "c"
      ],
      [
        "c",
        "ute"
      ],
      [
        "d",
        "end"
      ],
      [
        "d",
        "ru"
      ],
      [
        "f",
        "ing"
      ],
      [
        "g",
        "en"
      ],
      [
        "h",
        "one"
      ],
      [
        "j",
        "ob"
      ],
      [
        "l",
        "low"
      ],
      [
        "m",
        "8"
      ],
      [
        "m",
        "r"
      ],
      [
        "m",
        "me"
      ],
      [
        "m",
        "ue"
      ],
      [
        "m",
        "kb"
      ],
      [
        "o",
        "s"
      ],
      [
        "o",
        "ld"
      ],
      [
        "p",
        "en"
      ],
      [
        "s",
        "ing"
      ],
      [
        "s",
        "lad"
      ],
      [
        "t",
        "it"
      ],
      [
        "t",
        "is"
      ],
      [
        "t",
        "em"
      ],
      [
        "t",
        "_t"
      ],
      [
        "x",
        "axax"
      ],
      [
        "y",
        "ay"
      ],
      [
        "se",
        "em"
      ],
      [
        "pa",
        "ssive"
      ],
      [
        "ha",
        "r"
      ],
      [
        "ha",
        "ck"
      ],
      [
        "no",
        "o"
      ],
      [
        "re",
        "n"
      ],
      [
        "lo",
        "g"
      ],
      [
        "me",
        "ga"
      ],
      [
        "ar",
        "m"
      ],
      [
        "fu",
        "ll"
      ],
      [
        "ay",
        "y"
      ],
      [
        "fuck",
        "ign"
      ],
      [
        "al",
        "right"
      ],
      [
        "at",
        "ta"
      ],
      [
        "ra",
        "zor"
      ],
      [
        "li",
        "ar"
      ],
      [
        "su",
        "rp"
      ],
      [
        "ma",
        "in"
      ],
      [
        "mid",
        "as"
      ],
      [
        "de",
        "c"
      ],
      [
        "un",
        "dy"
      ],
      [
        "un",
        "til"
      ],
      [
        "ri",
        "se"
      ],
      [
        "com",
        "me"
      ],
      [
        "fa",
        "m"
      ],
      [
        "ly",
        "can"
      ],
      [
        "min",
        "e"
      ],
      [
        "lose",
        "r"
      ],
      [
        "ru",
        "s"
      ],
      [
        "ru",
        "pt"
      ],
      [
        "ir",
        "d"
      ],
      [
        "bo",
        "is"
      ],
      [
        "sl",
        "eep"
      ],
      [
        "cou",
        "r"
      ],
      [
        "gl",
        "gl"
      ],
      [
        "ab",
        "ba"
      ],
      [
        "fin",
        "d"
      ],
      [
        "jaja",
        "ja"
      ],
      [
        "silen",
        "ce"
      ],
      [
        "el",
        "se"
      ],
      [
        "pre",
        "ss"
      ],
      [
        "spa",
        "wn"
      ],
      [
        "tusk",
        "ar"
      ],
      [
        "fck",
        "ing"
      ],
      [
        "sm",
        "art"
      ],
      [
        "hhhh",
        "hhhh"
      ],
      [
        "mmmm",
        "mmmm"
      ],
      [
        "kin",
        "da"
      ],
      [
        "cra",
        "sh"
      ],
      [
        "dun",
        "no"
      ],
      [
        "ik",
        "r"
      ],
      [
        "pla",
        "in"
      ],
      [
        "cat",
        "ch"
      ],
      [
        "wel",
        "come"
      ],
      [
        "inter",
        "net"
      ],
      [
        "wood",
        "en"
      ],
      [
        "pug",
        "na"
      ],
      [
        "srs",
        "ly"
      ],
      [
        "mira",
        "cle"
      ],
      [
        "tact",
        "ical"
      ],
      [
        "bull",
        "shit"
      ],
      [
        "pow",
        "er"
      ],
      [
        "fing",
        "er"
      ],
      [
        "slad",
        "ar"
      ],
      [
        "!",
        "@"
      ],
      [
        "3",
        "6"
      ],
      [
        "@",
        "@"
      ],
      [
        "a",
        "ha"
      ],
      [
        "c",
        "d"
      ],
      [
        "e",
        "ld"
      ],
      [
        "e",
        "cho"
      ],
      [
        "f",
        "9"
      ],
      [
        "h",
        "ha"
      ],
      [
        "h",
        "or"
      ],
      [
        "j",
        "sut"
      ],
      [
        "l",
        "lo"
      ],
      [
        "l",
        "al"
      ],
      [
        "m",
        "ga"
      ],
      [
        "m",
        "ic"
      ],
      [
        "n",
        "n"
      ],
      [
        "n",
        "v"
      ],
      [
        "p",
        "is"
      ],
      [
        "p",
        "ot"
      ],
      [
        "r",
        "ich"
      ],
      [
        "s",
        "ide"
      ],
      [
        "v",
        "room"
      ],
      [
        "w",
        "ish"
      ],
      [
        "pa",
        "y"
      ],
      [
        "he",
        "h"
      ],
      [
        "he",
        "art"
      ],
      [
        "no",
        "r"
      ],
      [
        "re",
        "me"
      ],
      [
        "an",
        "noy"
      ],
      [
        "be",
        "at"
      ],
      [
        "st",
        "ri"
      ],
      [
        "er",
        "o"
      ],
      [
        "do",
        "or"
      ],
      [
        "fu",
        "q"
      ],
      [
        "ro",
        "am"
      ],
      [
        "ga",
        "ga"
      ],
      [
        "sh",
        "ot"
      ],
      [
        "li",
        "st"
      ],
      [
        "su",
        "n"
      ],
      [
        "su",
        "per"
      ],
      [
        "ma",
        "x"
      ],
      [
        "ss",
        "ic"
      ],
      [
        "ty",
        "pical"
      ],
      [
        "wa",
        "haha"
      ],
      [
        "ver",
        "n"
      ],
      [
        "pu",
        "d"
      ],
      [
        "pu",
        "re"
      ],
      [
        "da",
        "z"
      ],
      [
        "da",
        "un"
      ],
      [
        "pro",
        "b"
      ],
      [
        "il",
        "ity"
      ],
      [
        "per",
        "son"
      ],
      [
        "as",
        "d"
      ],
      [
        "ff",
        "s"
      ],
      [
        "feed",
        "ing"
      ],
      [
        "tra",
        "de"
      ],
      [
        "far",
        "mer"
      ],
      [
        "kk",
        "k"
      ],
      [
        "ax",
        "a"
      ],
      [
        "hah",
        "haha"
      ],
      [
        "ah",
        "haha"
      ],
      [
        "qu",
        "ick"
      ],
      [
        "ww",
        "ww"
      ],
      [
        "oooooooo",
        "oooo"
      ],
      [
        "every",
        "thing"
      ],
      [
        "int",
        "en"
      ],
      [
        "mag",
        "ina"
      ],
      [
        "mor",
        "ph"
      ],
      [
        "tw",
        "o"
      ],
      [
        "mon",
        "go"
      ],
      [
        "ner",
        "d"
      ],
      [
        "nigg",
        "er"
      ],
      [
        "kin",
        "d"
      ],
      [
        "bbbb",
        "bbbb"
      ],
      [
        "soo",
        "n"
      ],
      [
        "au",
        "to"
      ],
      [
        "scare",
        "d"
      ],
      [
        "ton",
        "y"
      ],
      [
        "won",
        "der"
      ],
      [
        "vol",
        "vo"
      ],
      [
        "ep",
        "ic"
      ],
      [
        "sma",
        "ck"
      ],
      [
        "dend",
        "i"
      ],
      [
        "hone",
        "st"
      ],
      [
        "atta",
        "ck"
      ],
      [
        "surp",
        "rise"
      ],
      [
        "nv",
        "m"
      ],
      [
        ".",
        "-"
      ],
      [
        "1",
        "vs"
      ],
      [
        "3",
        "3"
      ],
      [
        "9",
        "9"
      ],
      [
        "e",
        "ul"
      ],
      [
        "f",
        "ke"
      ],
      [
        "g",
        "lad"
      ],
      [
        "g",
        "pm"
      ],
      [
        "h",
        "n"
      ],
      [
        "h",
        "haha"
      ],
      [
        "k",
        "ay"
      ],
      [
        "k",
        "ka"
      ],
      [
        "m",
        "l"
      ],
      [
        "n",
        "ic"
      ],
      [
        "o",
        "hh"
      ],
      [
        "s",
        "at"
      ],
      [
        "s",
        "han"
      ],
      [
        "t",
        "ha"
      ],
      [
        "t",
        "or"
      ],
      [
        "t",
        "ouch"
      ],
      [
        "he",
        "ar"
      ],
      [
        "no",
        "body"
      ],
      [
        "lo",
        "ad"
      ],
      [
        "be",
        "g"
      ],
      [
        "me",
        "h"
      ],
      [
        "it",
        "o"
      ],
      [
        "it",
        "her"
      ],
      [
        "st",
        "ion"
      ],
      [
        "ll",
        "l"
      ],
      [
        "ez",
        "z"
      ],
      [
        "ez",
        "zz"
      ],
      [
        "wp",
        "wp"
      ],
      [
        "ro",
        "ck"
      ],
      [
        "ro",
        "shan"
      ],
      [
        "to",
        "m"
      ],
      [
        "to",
        "xic"
      ],
      [
        "ga",
        "ming"
      ],
      [
        "so",
        "l"
      ],
      [
        "ba",
        "g"
      ],
      [
        "ba",
        "s"
      ],
      [
        "ra",
        "g"
      ],
      [
        "for",
        "ce"
      ],
      [
        "ju",
        "mp"
      ],
      [
        "la",
        "wl"
      ],
      [
        "ho",
        "ho"
      ],
      [
        "de",
        "lay"
      ],
      [
        "wa",
        "k"
      ],
      [
        "un",
        "d"
      ],
      [
        "ri",
        "ble"
      ],
      [
        "ti",
        "red"
      ],
      [
        "com",
        "ment"
      ],
      [
        "sa",
        "mue"
      ],
      [
        "pe",
        "ct"
      ],
      [
        "da",
        "d"
      ],
      [
        "da",
        "gger"
      ],
      [
        "na",
        "ix"
      ],
      [
        "as",
        "i"
      ],
      [
        "po",
        "s"
      ],
      [
        "tra",
        "p"
      ],
      [
        "che",
        "n"
      ],
      [
        "ab",
        "le"
      ],
      [
        "ab",
        "ility"
      ],
      [
        "who",
        "re"
      ],
      [
        "mu",
        "m"
      ],
      [
        "mi",
        "ght"
      ],
      [
        "fi",
        "re"
      ],
      [
        "bu",
        "g"
      ],
      [
        "bra",
        "h"
      ],
      [
        "ex",
        "c"
      ],
      [
        "ig",
        "no"
      ],
      [
        "yo",
        "yo"
      ],
      [
        "mag",
        "ic"
      ],
      [
        "dis",
        "connect"
      ],
      [
        "mat",
        "ter"
      ],
      [
        "sc",
        "re"
      ],
      [
        "safe",
        "lane"
      ],
      [
        "yyyy",
        "yyyy"
      ],
      [
        "ssss",
        "ssss"
      ],
      [
        "hu",
        "h"
      ],
      [
        "cla",
        "ssic"
      ],
      [
        "rapi",
        "ra"
      ],
      [
        "reconnect",
        "e"
      ],
      [
        "gree",
        "dy"
      ],
      [
        "nooo",
        "b"
      ],
      [
        "dou",
        "ble"
      ],
      [
        "wy",
        "vern"
      ],
      [
        "rupt",
        "or"
      ],
      [
        "reme",
        "mber"
      ],
      [
        "stri",
        "ke"
      ],
      [
        "#",
        "!@"
      ],
      [
        "-",
        ".-"
      ],
      [
        "2",
        "8"
      ],
      [
        "2",
        "v5"
      ],
      [
        ":",
        "*"
      ],
      [
        "a",
        "k"
      ],
      [
        "a",
        "we"
      ],
      [
        "a",
        "go"
      ],
      [
        "a",
        "hahahah"
      ],
      [
        "b",
        "ark"
      ],
      [
        "c",
        "al"
      ],
      [
        "d",
        "nt"
      ],
      [
        "e",
        "ye"
      ],
      [
        "e",
        "ither"
      ],
      [
        "f",
        "id"
      ],
      [
        "f",
        "all"
      ],
      [
        "g",
        "f"
      ],
      [
        "g",
        "t"
      ],
      [
        "g",
        "an"
      ],
      [
        "g",
        "oo"
      ],
      [
        "g",
        "li"
      ],
      [
        "h",
        "m"
      ],
      [
        "i",
        "u"
      ],
      [
        "k",
        "ar"
      ],
      [
        "l",
        "p"
      ],
      [
        "l",
        "and"
      ],
      [
        "l",
        "ang"
      ],
      [
        "m",
        "ar"
      ],
      [
        "n",
        "ut"
      ],
      [
        "o",
        "0"
      ],
      [
        "p",
        "ink"
      ],
      [
        "r",
        "ge"
      ],
      [
        "s",
        "ong"
      ],
      [
        "s",
        "ound"
      ],
      [
        "s",
        "core"
      ],
      [
        "t",
        "bh"
      ],
      [
        "t",
        "urn"
      ],
      [
        "t",
        "each"
      ],
      [
        "u",
        "lol"
      ],
      [
        "x",
        "ddd"
      ],
      [
        "z",
        "ue"
      ],
      [
        "no",
        "b"
      ],
      [
        "no",
        "n"
      ],
      [
        "re",
        "spawn"
      ],
      [
        "in",
        "st"
      ],
      [
        "an",
        "ge"
      ],
      [
        "lo",
        "ol"
      ],
      [
        "be",
        "ast"
      ],
      [
        "me",
        "n"
      ],
      [
        "me",
        "ss"
      ],
      [
        "me",
        "et"
      ],
      [
        "me",
        "lee"
      ],
      [
        "st",
        "ream"
      ],
      [
        "fu",
        "ri"
      ],
      [
        "pl",
        "ss"
      ],
      [
        "th",
        "n"
      ],
      [
        "en",
        "ge"
      ],
      [
        "en",
        "ix"
      ],
      [
        "id",
        "er"
      ],
      [
        "to",
        "tal"
      ],
      [
        "al",
        "a"
      ],
      [
        "sh",
        "h"
      ],
      [
        "ba",
        "k"
      ],
      [
        "ic",
        "a"
      ],
      [
        "ra",
        "ct"
      ],
      [
        "la",
        "me"
      ],
      [
        "de",
        "s"
      ],
      [
        "ut",
        "ut"
      ],
      [
        "fa",
        "v"
      ],
      [
        "fa",
        "ke"
      ],
      [
        "use",
        "ful"
      ],
      [
        "ye",
        "h"
      ],
      [
        "da",
        "fuq"
      ],
      [
        "wr",
        "ite"
      ],
      [
        "sl",
        "ut"
      ],
      [
        "rd",
        "y"
      ],
      [
        "ca",
        "mp"
      ],
      [
        "po",
        "ssi"
      ],
      [
        "fk",
        "n"
      ],
      [
        "che",
        "e"
      ],
      [
        "sup",
        "pose"
      ],
      [
        "ab",
        "sol"
      ],
      [
        "jo",
        "hn"
      ],
      [
        "bot",
        "tom"
      ],
      [
        "fi",
        "le"
      ],
      [
        "fro",
        "g"
      ],
      [
        "ran",
        "ger"
      ],
      [
        "alch",
        "i"
      ],
      [
        "again",
        "t"
      ],
      [
        "si",
        "gh"
      ],
      [
        "she",
        "t"
      ],
      [
        "dddddddd",
        "dddd"
      ],
      [
        "ex",
        "pect"
      ],
      [
        "mother",
        "fucker"
      ],
      [
        "quit",
        "e"
      ],
      [
        "russi",
        "a"
      ],
      [
        "dis",
        "ruptor"
      ],
      [
        "str",
        "on"
      ],
      [
        "dog",
        "shit"
      ],
      [
        "rando",
        "me"
      ],
      [
        "sc",
        "rub"
      ],
      [
        "ahah",
        "ha"
      ],
      [
        "ag",
        "ree"
      ],
      [
        "que",
        "stion"
      ],
      [
        "leg",
        "it"
      ],
      [
        "gr",
        "ound"
      ],
      [
        "rec",
        "or"
      ],
      [
        "til",
        "t"
      ],
      [
        "ąą",
        "ąą"
      ],
      [
        "pri",
        "o"
      ],
      [
        "bru",
        "h"
      ],
      [
        "kon",
        "tol"
      ],
      [
        "kat",
        "ka"
      ],
      [
        "spi",
        "rit"
      ],
      [
        "bre",
        "w"
      ],
      [
        "agg",
        "ro"
      ],
      [
        "pho",
        "enix"
      ],
      [
        "mongo",
        "lo"
      ],
      [
        "honest",
        "ly"
      ],
      [
        "und",
        "ye"
      ],
      [
        "samue",
        "l"
      ],
      [
        "2",
        "3"
      ],
      [
        "4",
        "head"
      ],
      [
        "6",
        "0"
      ],
      [
        "a",
        "sa"
      ],
      [
        "a",
        "ppa"
      ],
      [
        "b",
        "m"
      ],
      [
        "b",
        "us"
      ],
      [
        "b",
        "unch"
      ],
      [
        "c",
        "lo"
      ],
      [
        "c",
        "ur"
      ],
      [
        "e",
        "w"
      ],
      [
        "e",
        "ff"
      ],
      [
        "f",
        "ood"
      ],
      [
        "g",
        "lo"
      ],
      [
        "g",
        "al"
      ],
      [
        "g",
        "ut"
      ],
      [
        "g",
        "tf"
      ],
      [
        "g",
        "rat"
      ],
      [
        "g",
        "ang"
      ],
      [
        "i",
        "no"
      ],
      [
        "k",
        "r"
      ],
      [
        "k",
        "ee"
      ],
      [
        "k",
        "ot"
      ],
      [
        "l",
        "s"
      ],
      [
        "l",
        "t"
      ],
      [
        "n",
        "at"
      ],
      [
        "p",
        "ha"
      ],
      [
        "p",
        "id"
      ],
      [
        "p",
        "ract"
      ],
      [
        "s",
        "cum"
      ],
      [
        "s",
        "nap"
      ],
      [
        "t",
        "2"
      ],
      [
        "t",
        "ill"
      ],
      [
        "t",
        "ic"
      ],
      [
        "t",
        "witch"
      ],
      [
        "w",
        "u"
      ],
      [
        "x",
        "dddd"
      ],
      [
        "y",
        "s"
      ],
      [
        "ha",
        "lf"
      ],
      [
        "gg",
        "le"
      ],
      [
        "he",
        "u"
      ],
      [
        "no",
        "no"
      ],
      [
        "re",
        "spect"
      ],
      [
        "re",
        "fre"
      ],
      [
        "re",
        "por"
      ],
      [
        "re",
        "bor"
      ],
      [
        "an",
        "ta"
      ],
      [
        "an",
        "im"
      ],
      [
        "lo",
        "b"
      ],
      [
        "be",
        "st"
      ],
      [
        "be",
        "ar"
      ],
      [
        "me",
        "k"
      ],
      [
        "or",
        "ac"
      ],
      [
        "st",
        "o"
      ],
      [
        "st",
        "y"
      ],
      [
        "ll",
        "enge"
      ],
      [
        "ea",
        "d"
      ],
      [
        "ez",
        "a"
      ],
      [
        "on",
        "ce"
      ],
      [
        "on",
        "ix"
      ],
      [
        "th",
        "in"
      ],
      [
        "en",
        "ce"
      ],
      [
        "en",
        "ter"
      ],
      [
        "id",
        "n"
      ],
      [
        "to",
        "t"
      ],
      [
        "fuck",
        "tard"
      ],
      [
        "al",
        "y"
      ],
      [
        "sh",
        "ort"
      ],
      [
        "sh",
        "op"
      ],
      [
        "sh",
        "hh"
      ],
      [
        "co",
        "s"
      ],
      [
        "ba",
        "be"
      ],
      [
        "ra",
        "id"
      ],
      [
        "ra",
        "ther"
      ],
      [
        "su",
        "ff"
      ],
      [
        "su",
        "mail"
      ],
      [
        "ch",
        "i"
      ],
      [
        "ch",
        "ine"
      ],
      [
        "ch",
        "ick"
      ],
      [
        "ma",
        "s"
      ],
      [
        "ma",
        "ster"
      ],
      [
        "ho",
        "t"
      ],
      [
        "ss",
        "s"
      ],
      [
        "de",
        "cent"
      ],
      [
        "de",
        "stro"
      ],
      [
        "wa",
        "g"
      ],
      [
        "ti",
        "re"
      ],
      [
        "com",
        "plain"
      ],
      [
        "ur",
        "self"
      ],
      [
        "sa",
        "ke"
      ],
      [
        "di",
        "rty"
      ],
      [
        "wh",
        "ich"
      ],
      [
        "pu",
        "b"
      ],
      [
        "pe",
        "ci"
      ],
      [
        "ye",
        "llow"
      ],
      [
        "ru",
        "le"
      ],
      [
        "da",
        "ddy"
      ],
      [
        "yea",
        "p"
      ],
      [
        "ce",
        "pt"
      ],
      [
        "sl",
        "ay"
      ],
      [
        "po",
        "ta"
      ],
      [
        "fk",
        "ing"
      ],
      [
        "ka",
        "k"
      ],
      [
        "hahahaha",
        "haha"
      ],
      [
        "con",
        "nec"
      ],
      [
        "suck",
        "er"
      ],
      [
        "ki",
        "ro"
      ],
      [
        "ter",
        "ror"
      ],
      [
        "vo",
        "d"
      ],
      [
        "yy",
        "y"
      ],
      [
        "bu",
        "ff"
      ],
      [
        "bu",
        "ddy"
      ],
      [
        "wat",
        "er"
      ],
      [
        "ear",
        "th"
      ],
      [
        "20",
        "15"
      ],
      [
        "spa",
        "m"
      ],
      [
        "spa",
        "re"
      ],
      [
        "tw",
        "ice"
      ],
      [
        "hehe",
        "he"
      ],
      [
        "fore",
        "ver"
      ],
      [
        "br",
        "b"
      ],
      [
        "br",
        "ing"
      ],
      [
        "af",
        "raid"
      ],
      [
        "invo",
        "ke"
      ],
      [
        "ang",
        "ry"
      ],
      [
        "sm",
        "h"
      ],
      [
        "cha",
        "rge"
      ],
      [
        "cha",
        "llenge"
      ],
      [
        "nu",
        "b"
      ],
      [
        "zzzzzzzz",
        "zzzzzzzz"
      ],
      [
        "radi",
        "ance"
      ],
      [
        "uuuu",
        "uuuu"
      ],
      [
        "eeeeeeeeeeeeeeee",
        "eeeeeeeeeeeeeeee"
      ],
      [
        "cla",
        "sh"
      ],
      [
        "gr",
        "8"
      ],
      [
        "cool",
        "down"
      ],
      [
        "ali",
        "ve"
      ],
      [
        "ahha",
        "ah"
      ],
      [
        "rent",
        "ly"
      ],
      [
        "kun",
        "ka"
      ],
      [
        "kun",
        "kka"
      ],
      [
        "wal",
        "k"
      ],
      [
        "sex",
        "y"
      ],
      [
        "ind",
        "eed"
      ],
      [
        "aut",
        "ist"
      ],
      [
        "bt",
        "m"
      ],
      [
        "tre",
        "ant"
      ],
      [
        "loo",
        "se"
      ],
      [
        "div",
        "ine"
      ],
      [
        "sing",
        "le"
      ],
      [
        "undy",
        "ing"
      ],
      [
        "annoy",
        "ing"
      ],
      [
        "exc",
        "use"
      ],
      [
        "igno",
        "re"
      ],
      [
        "cal",
        "m"
      ],
      [
        "fav",
        "or"
      ],
      [
        "possi",
        "ble"
      ],
      [
        "absol",
        "ute"
      ],
      [
        "stron",
        "k"
      ],
      [
        "mongolo",
        "id"
      ],
      [
        "kot",
        "l"
      ],
      [
        "rebor",
        "n"
      ],
      [
        "orac",
        "le"
      ],
      [
        "suff",
        "er"
      ],
      [
        "destro",
        "y"
      ],
      [
        "peci",
        "ally"
      ],
      [
        ".",
        "="
      ],
      [
        "3",
        "5"
      ],
      [
        "3",
        "rd"
      ],
      [
        "4",
        "4"
      ],
      [
        "4",
        "v4"
      ],
      [
        "8",
        "8"
      ],
      [
        "9",
        "0"
      ],
      [
        ":",
        "'"
      ],
      [
        "=",
        "("
      ],
      [
        "a",
        "i"
      ],
      [
        "a",
        "ba"
      ],
      [
        "a",
        "gi"
      ],
      [
        "a",
        "pp"
      ],
      [
        "a",
        "ssi"
      ],
      [
        "b",
        "on"
      ],
      [
        "b",
        "ur"
      ],
      [
        "b",
        "ul"
      ],
      [
        "b",
        "out"
      ],
      [
        "b",
        "row"
      ],
      [
        "b",
        "ook"
      ],
      [
        "c",
        "s"
      ],
      [
        "c",
        "or"
      ],
      [
        "c",
        "ut"
      ],
      [
        "c",
        "rea"
      ],
      [
        "c",
        "ya"
      ],
      [
        "d",
        "do"
      ],
      [
        "d",
        "ee"
      ],
      [
        "f",
        "y"
      ],
      [
        "f",
        "ool"
      ],
      [
        "g",
        "n"
      ],
      [
        "g",
        "ma"
      ],
      [
        "h",
        "r"
      ],
      [
        "h",
        "our"
      ],
      [
        "h",
        "ouse"
      ],
      [
        "i",
        "a"
      ],
      [
        "i",
        "mm"
      ],
      [
        "i",
        "us"
      ],
      [
        "i",
        "ze"
      ],
      [
        "i",
        "ance"
      ],
      [
        "j",
        "er"
      ],
      [
        "j",
        "aa"
      ],
      [
        "k",
        "l"
      ],
      [
        "k",
        "n"
      ],
      [
        "m",
        "k"
      ],
      [
        "m",
        "ou"
      ],
      [
        "m",
        "ba"
      ],
      [
        "m",
        "ark"
      ],
      [
        "n",
        "ing"
      ],
      [
        "n",
        "ce"
      ],
      [
        "n",
        "ear"
      ],
      [
        "o",
        "i"
      ],
      [
        "o",
        "ta"
      ],
      [
        "p",
        "ter"
      ],
      [
        "s",
        "j"
      ],
      [
        "s",
        "r"
      ],
      [
        "s",
        "and"
      ],
      [
        "s",
        "now"
      ],
      [
        "s",
        "da"
      ],
      [
        "t",
        "s"
      ],
      [
        "t",
        "at"
      ],
      [
        "t",
        "ran"
      ],
      [
        "t",
        "ang"
      ],
      [
        "u",
        "lo"
      ],
      [
        "v",
        "y"
      ],
      [
        "v",
        "in"
      ],
      [
        "v",
        "as"
      ],
      [
        "y",
        "as"
      ],
      [
        "z",
        "ero"
      ],
      [
        "se",
        "ar"
      ],
      [
        "pa",
        "cket"
      ],
      [
        "ha",
        "i"
      ],
      [
        "gg",
        "s"
      ],
      [
        "no",
        "oooo"
      ],
      [
        "no",
        "ooo"
      ],
      [
        "no",
        "ise"
      ],
      [
        "re",
        "f"
      ],
      [
        "re",
        "g"
      ],
      [
        "re",
        "st"
      ],
      [
        "re",
        "make"
      ],
      [
        "an",
        "je"
      ],
      [
        "lo",
        "s"
      ],
      [
        "lo",
        "lol"
      ],
      [
        "be",
        "h"
      ],
      [
        "be",
        "gin"
      ],
      [
        "it",
        "ch"
      ],
      [
        "ck",
        "e"
      ],
      [
        "st",
        "u"
      ],
      [
        "st",
        "ar"
      ],
      [
        "st",
        "al"
      ],
      [
        "st",
        "at"
      ],
      [
        "st",
        "ic"
      ],
      [
        "oo",
        "h"
      ],
      [
        "do",
        "dge"
      ],
      [
        "ar",
        "ound"
      ],
      [
        "fu",
        "ke"
      ],
      [
        "wp",
        "o"
      ],
      [
        "ro",
        "ll"
      ],
      [
        "ro",
        "ss"
      ],
      [
        "is",
        "sue"
      ],
      [
        "al",
        "ce"
      ],
      [
        "al",
        "ity"
      ],
      [
        "sh",
        "oot"
      ],
      [
        "co",
        "ver"
      ],
      [
        "co",
        "ld"
      ],
      [
        "we",
        "st"
      ],
      [
        "we",
        "ird"
      ],
      [
        "at",
        "m"
      ],
      [
        "so",
        "z"
      ],
      [
        "ba",
        "sher"
      ],
      [
        "go",
        "t"
      ],
      [
        "li",
        "l"
      ],
      [
        "li",
        "ck"
      ],
      [
        "su",
        "m"
      ],
      [
        "ch",
        "to"
      ],
      [
        "ma",
        "i"
      ],
      [
        "mid",
        "a"
      ],
      [
        "wa",
        "ve"
      ],
      [
        "wa",
        "ht"
      ],
      [
        "ta",
        "b"
      ],
      [
        "ta",
        "ur"
      ],
      [
        "ta",
        "ht"
      ],
      [
        "ti",
        "e"
      ],
      [
        "ti",
        "ming"
      ],
      [
        "com",
        "back"
      ],
      [
        "fa",
        "k"
      ],
      [
        "ly",
        "in"
      ],
      [
        "min",
        "es"
      ],
      [
        "ir",
        "th"
      ],
      [
        "da",
        "re"
      ],
      [
        "pro",
        "file"
      ],
      [
        "per",
        "ate"
      ],
      [
        "per",
        "fe"
      ],
      [
        "ja",
        "kiro"
      ],
      [
        "man",
        "go"
      ],
[...]
